#include "magic_wand_model_data.h"

// We need to keep the data array aligned on some architectures.
#ifdef __has_attribute
#define HAVE_ATTRIBUTE(x) __has_attribute(x)
#else
#define HAVE_ATTRIBUTE(x) 0
#endif
#if HAVE_ATTRIBUTE(aligned) || (defined(__GNUC__) && !defined(__clang__))
#define DATA_ALIGN_ATTRIBUTE __attribute__((aligned(4)))
#else
#define DATA_ALIGN_ATTRIBUTE
#endif

const unsigned char g_magic_wand_model_data[] DATA_ALIGN_ATTRIBUTE =  {
    0x08, 0x00, 0x00, 0x00, 0x54, 0x46, 0x4c, 0x33, 0x62, 0xff, 0xff, 0xff,
    0x03, 0x00, 0x00, 0x00, 0x10, 0x00, 0x00, 0x00, 0x24, 0x00, 0x00, 0x00,
    0x78, 0x00, 0x00, 0x00, 0x24, 0x00, 0x00, 0x00, 0x05, 0x00, 0x00, 0x00,
    0x78, 0x05, 0x00, 0x00, 0xb0, 0x04, 0x00, 0x00, 0xe0, 0x02, 0x00, 0x00,
    0x60, 0x02, 0x00, 0x00, 0x54, 0x01, 0x00, 0x00, 0x01, 0x00, 0x00, 0x00,
    0x78, 0x00, 0x00, 0x00, 0x13, 0x00, 0x00, 0x00, 0x18, 0x30, 0x00, 0x00,
    0x14, 0x30, 0x00, 0x00, 0x20, 0x2f, 0x00, 0x00, 0xa8, 0x2e, 0x00, 0x00,
    0x3c, 0x2e, 0x00, 0x00, 0xec, 0x11, 0x00, 0x00, 0x98, 0x10, 0x00, 0x00,
    0xbc, 0x0e, 0x00, 0x00, 0x60, 0x06, 0x00, 0x00, 0xfc, 0x05, 0x00, 0x00,
    0x78, 0x05, 0x00, 0x00, 0xec, 0x2f, 0x00, 0x00, 0xe8, 0x2f, 0x00, 0x00,
    0xe4, 0x2f, 0x00, 0x00, 0xe0, 0x2f, 0x00, 0x00, 0xdc, 0x2f, 0x00, 0x00,
    0xd8, 0x2f, 0x00, 0x00, 0xd4, 0x2f, 0x00, 0x00, 0xd0, 0x2f, 0x00, 0x00,
    0x0f, 0x00, 0x00, 0x00, 0x4d, 0x4c, 0x49, 0x52, 0x20, 0x43, 0x6f, 0x6e,
    0x76, 0x65, 0x72, 0x74, 0x65, 0x64, 0x2e, 0x00, 0x00, 0x00, 0x0e, 0x00,
    0x18, 0x00, 0x04, 0x00, 0x08, 0x00, 0x0c, 0x00, 0x10, 0x00, 0x14, 0x00,
    0x0e, 0x00, 0x00, 0x00, 0x14, 0x00, 0x00, 0x00, 0x5c, 0x00, 0x00, 0x00,
    0x60, 0x00, 0x00, 0x00, 0x64, 0x00, 0x00, 0x00, 0x84, 0x00, 0x00, 0x00,
    0x12, 0x00, 0x00, 0x00, 0x48, 0x2f, 0x00, 0x00, 0xe4, 0x2e, 0x00, 0x00,
    0x3c, 0x2e, 0x00, 0x00, 0xd8, 0x2d, 0x00, 0x00, 0x70, 0x2d, 0x00, 0x00,
    0x1c, 0x11, 0x00, 0x00, 0xc0, 0x0f, 0x00, 0x00, 0xe4, 0x0d, 0x00, 0x00,
    0xa0, 0x05, 0x00, 0x00, 0x3c, 0x05, 0x00, 0x00, 0xb0, 0x04, 0x00, 0x00,
    0xe8, 0x03, 0x00, 0x00, 0x38, 0x03, 0x00, 0x00, 0xa4, 0x02, 0x00, 0x00,
    0x10, 0x02, 0x00, 0x00, 0x90, 0x01, 0x00, 0x00, 0xfc, 0x00, 0x00, 0x00,
    0x80, 0x00, 0x00, 0x00, 0x01, 0x00, 0x00, 0x00, 0x00, 0x00, 0x00, 0x00,
    0x01, 0x00, 0x00, 0x00, 0x11, 0x00, 0x00, 0x00, 0x08, 0x00, 0x00, 0x00,
    0x1c, 0x04, 0x00, 0x00, 0x58, 0x03, 0x00, 0x00, 0xc8, 0x02, 0x00, 0x00,
    0x24, 0x02, 0x00, 0x00, 0xac, 0x01, 0x00, 0x00, 0x10, 0x01, 0x00, 0x00,
    0x94, 0x00, 0x00, 0x00, 0x10, 0x00, 0x00, 0x00, 0x04, 0x00, 0x00, 0x00,
    0x6d, 0x61, 0x69, 0x6e, 0x00, 0x00, 0x00, 0x00, 0x8e, 0xff, 0xff, 0xff,
    0x00, 0x00, 0x00, 0x09, 0x04, 0x00, 0x00, 0x00, 0x1c, 0x00, 0x00, 0x00,
    0x10, 0x00, 0x00, 0x00, 0x04, 0x00, 0x00, 0x00, 0x0a, 0xd2, 0xff, 0xff,
    0x00, 0x00, 0x80, 0x3f, 0x01, 0x00, 0x00, 0x00, 0x11, 0x00, 0x00, 0x00,
    0x01, 0x00, 0x00, 0x00, 0x10, 0x00, 0x00, 0x00, 0xf6, 0xfb, 0xff, 0xff,
    0x00, 0x00, 0x00, 0x19, 0x01, 0x00, 0x00, 0x00, 0x8a, 0xd1, 0xff, 0xff,
    0x10, 0x00, 0x00, 0x00, 0x12, 0x00, 0x00, 0x00, 0x14, 0x00, 0x00, 0x00,
    0x20, 0x00, 0x00, 0x00, 0x02, 0x00, 0x00, 0x00, 0x01, 0x00, 0x00, 0x00,
    0x04, 0x00, 0x00, 0x00, 0x08, 0x00, 0x00, 0x00, 0x49, 0x64, 0x65, 0x6e,
    0x74, 0x69, 0x74, 0x79, 0x00, 0x00, 0x00, 0x00, 0xc4, 0xd1, 0xff, 0xff,
    0x00, 0x00, 0x0e, 0x00, 0x18, 0x00, 0x08, 0x00, 0x0c, 0x00, 0x10, 0x00,
    0x07, 0x00, 0x14, 0x00, 0x0e, 0x00, 0x00, 0x00, 0x00, 0x00, 0x00, 0x08,
    0x03, 0x00, 0x00, 0x00, 0x18, 0x00, 0x00, 0x00, 0x0c, 0x00, 0x00, 0x00,
    0x04, 0x00, 0x00, 0x00, 0x98, 0xd1, 0xff, 0xff, 0x01, 0x00, 0x00, 0x00,
    0x10, 0x00, 0x00, 0x00, 0x03, 0x00, 0x00, 0x00, 0x0f, 0x00, 0x00, 0x00,
    0x05, 0x00, 0x00, 0x00, 0x02, 0x00, 0x00, 0x00, 0x02, 0xd2, 0xff, 0xff,
    0x10, 0x00, 0x00, 0x00, 0x11, 0x00, 0x00, 0x00, 0x14, 0x00, 0x00, 0x00,
    0x30, 0x00, 0x00, 0x00, 0x02, 0x00, 0x00, 0x00, 0x01, 0x00, 0x00, 0x00,
    0x04, 0x00, 0x00, 0x00, 0x1a, 0x00, 0x00, 0x00, 0x73, 0x65, 0x71, 0x75,
    0x65, 0x6e, 0x74, 0x69, 0x61, 0x6c, 0x2f, 0x64, 0x65, 0x6e, 0x73, 0x65,
    0x5f, 0x31, 0x2f, 0x42, 0x69, 0x61, 0x73, 0x41, 0x64, 0x64, 0x00, 0x00,
    0xf4, 0xd1, 0xff, 0xff, 0xd6, 0xfd, 0xff, 0xff, 0x00, 0x00, 0x00, 0x08,
    0x03, 0x00, 0x00, 0x00, 0x24, 0x00, 0x00, 0x00, 0x18, 0x00, 0x00, 0x00,
    0x0c, 0x00, 0x00, 0x00, 0x00, 0x00, 0x06, 0x00, 0x08, 0x00, 0x07, 0x00,
    0x06, 0x00, 0x00, 0x00, 0x00, 0x00, 0x00, 0x01, 0x01, 0x00, 0x00, 0x00,
    0x0f, 0x00, 0x00, 0x00, 0x03, 0x00, 0x00, 0x00, 0x0e, 0x00, 0x00, 0x00,
    0x04, 0x00, 0x00, 0x00, 0x01, 0x00, 0x00, 0x00, 0xfe, 0xfc, 0xff, 0xff,
    0x00, 0x00, 0x00, 0x09, 0x01, 0x00, 0x00, 0x00, 0x92, 0xd2, 0xff, 0xff,
    0x10, 0x00, 0x00, 0x00, 0x10, 0x00, 0x00, 0x00, 0x14, 0x00, 0x00, 0x00,
    0x2c, 0x00, 0x00, 0x00, 0x02, 0x00, 0x00, 0x00, 0x01, 0x00, 0x00, 0x00,
    0x10, 0x00, 0x00, 0x00, 0x15, 0x00, 0x00, 0x00, 0x73, 0x65, 0x71, 0x75,
    0x65, 0x6e, 0x74, 0x69, 0x61, 0x6c, 0x2f, 0x64, 0x65, 0x6e, 0x73, 0x65,
    0x2f, 0x52, 0x65, 0x6c, 0x75, 0x00, 0x00, 0x00, 0xd8, 0xd2, 0xff, 0xff,
    0x00, 0x00, 0x0a, 0x00, 0x10, 0x00, 0x04, 0x00, 0x08, 0x00, 0x0c, 0x00,
    0x0a, 0x00, 0x00, 0x00, 0x02, 0x00, 0x00, 0x00, 0x10, 0x00, 0x00, 0x00,
    0x04, 0x00, 0x00, 0x00, 0x01, 0x00, 0x00, 0x00, 0x0e, 0x00, 0x00, 0x00,
    0x02, 0x00, 0x00, 0x00, 0x0d, 0x00, 0x00, 0x00, 0x03, 0x00, 0x00, 0x00,
    0x7a, 0xfd, 0xff, 0xff, 0x00, 0x00, 0x00, 0x16, 0x01, 0x00, 0x00, 0x00,
    0x0e, 0xd3, 0xff, 0xff, 0x10, 0x00, 0x00, 0x00, 0x0f, 0x00, 0x00, 0x00,
    0x14, 0x00, 0x00, 0x00, 0x30, 0x00, 0x00, 0x00, 0x02, 0x00, 0x00, 0x00,
    0x01, 0x00, 0x00, 0x00, 0x70, 0x00, 0x00, 0x00, 0x1a, 0x00, 0x00, 0x00,
    0x73, 0x65, 0x71, 0x75, 0x65, 0x6e, 0x74, 0x69, 0x61, 0x6c, 0x2f, 0x66,
    0x6c, 0x61, 0x74, 0x74, 0x65, 0x6e, 0x2f, 0x52, 0x65, 0x73, 0x68, 0x61,
    0x70, 0x65, 0x00, 0x00, 0x00, 0xd3, 0xff, 0xff, 0xe2, 0xfe, 0xff, 0xff,
    0x00, 0x00, 0x00, 0x05, 0x01, 0x00, 0x00, 0x00, 0x38, 0x00, 0x00, 0x00,
    0x2c, 0x00, 0x00, 0x00, 0x14, 0x00, 0x00, 0x00, 0x00, 0x00, 0x0e, 0x00,
    0x14, 0x00, 0x00, 0x00, 0x10, 0x00, 0x0c, 0x00, 0x08, 0x00, 0x04, 0x00,
    0x0e, 0x00, 0x00, 0x00, 0x03, 0x00, 0x00, 0x00, 0x01, 0x00, 0x00, 0x00,
    0x03, 0x00, 0x00, 0x00, 0x01, 0x00, 0x00, 0x00, 0x01, 0x00, 0x00, 0x00,
    0x0d, 0x00, 0x00, 0x00, 0x01, 0x00, 0x00, 0x00, 0x0c, 0x00, 0x00, 0x00,
    0x9e, 0xd3, 0xff, 0xff, 0x10, 0x00, 0x00, 0x00, 0x0e, 0x00, 0x00, 0x00,
    0x1c, 0x00, 0x00, 0x00, 0x40, 0x00, 0x00, 0x00, 0x04, 0x00, 0x00, 0x00,
    0x01, 0x00, 0x00, 0x00, 0x07, 0x00, 0x00, 0x00, 0x01, 0x00, 0x00, 0x00,
    0x10, 0x00, 0x00, 0x00, 0x22, 0x00, 0x00, 0x00, 0x73, 0x65, 0x71, 0x75,
    0x65, 0x6e, 0x74, 0x69, 0x61, 0x6c, 0x2f, 0x6d, 0x61, 0x78, 0x5f, 0x70,
    0x6f, 0x6f, 0x6c, 0x69, 0x6e, 0x67, 0x32, 0x64, 0x5f, 0x31, 0x2f, 0x4d,
    0x61, 0x78, 0x50, 0x6f, 0x6f, 0x6c, 0x00, 0x00, 0xa0, 0xd3, 0xff, 0xff,
    0xc2, 0xfe, 0xff, 0xff, 0x00, 0x00, 0x00, 0x01, 0x24, 0x00, 0x00, 0x00,
    0x18, 0x00, 0x00, 0x00, 0x04, 0x00, 0x00, 0x00, 0xb4, 0xfe, 0xff, 0xff,
    0x01, 0x00, 0x00, 0x00, 0x01, 0x00, 0x00, 0x00, 0x00, 0x00, 0x00, 0x01,
    0x01, 0x00, 0x00, 0x00, 0x0c, 0x00, 0x00, 0x00, 0x03, 0x00, 0x00, 0x00,
    0x0b, 0x00, 0x00, 0x00, 0x07, 0x00, 0x00, 0x00, 0x09, 0x00, 0x00, 0x00,
    0x2e, 0xd4, 0xff, 0xff, 0x10, 0x00, 0x00, 0x00, 0x0d, 0x00, 0x00, 0x00,
    0x1c, 0x00, 0x00, 0x00, 0x2c, 0x00, 0x00, 0x00, 0x04, 0x00, 0x00, 0x00,
    0x01, 0x00, 0x00, 0x00, 0x15, 0x00, 0x00, 0x00, 0x01, 0x00, 0x00, 0x00,
    0x10, 0x00, 0x00, 0x00, 0x0c, 0x00, 0x00, 0x00, 0x74, 0x66, 0x6c, 0x2e,
    0x63, 0x6f, 0x6e, 0x76, 0x5f, 0x32, 0x64, 0x31, 0x00, 0x00, 0x00, 0x00,
    0x74, 0xd4, 0xff, 0xff, 0x00, 0x00, 0x0e, 0x00, 0x1a, 0x00, 0x08, 0x00,
    0x0c, 0x00, 0x10, 0x00, 0x07, 0x00, 0x14, 0x00, 0x0e, 0x00, 0x00, 0x00,
    0x00, 0x00, 0x00, 0x05, 0x01, 0x00, 0x00, 0x00, 0x3c, 0x00, 0x00, 0x00,
    0x30, 0x00, 0x00, 0x00, 0x14, 0x00, 0x00, 0x00, 0x00, 0x00, 0x0e, 0x00,
    0x18, 0x00, 0x17, 0x00, 0x10, 0x00, 0x0c, 0x00, 0x08, 0x00, 0x04, 0x00,
    0x0e, 0x00, 0x00, 0x00, 0x03, 0x00, 0x00, 0x00, 0x03, 0x00, 0x00, 0x00,
    0x03, 0x00, 0x00, 0x00, 0x03, 0x00, 0x00, 0x00, 0x00, 0x00, 0x00, 0x01,
    0x01, 0x00, 0x00, 0x00, 0x0b, 0x00, 0x00, 0x00, 0x01, 0x00, 0x00, 0x00,
    0x0a, 0x00, 0x00, 0x00, 0x46, 0xff, 0xff, 0xff, 0x00, 0x00, 0x00, 0x11,
    0x01, 0x00, 0x00, 0x00, 0xda, 0xd4, 0xff, 0xff, 0x10, 0x00, 0x00, 0x00,
    0x0c, 0x00, 0x00, 0x00, 0x1c, 0x00, 0x00, 0x00, 0x40, 0x00, 0x00, 0x00,
    0x04, 0x00, 0x00, 0x00, 0x01, 0x00, 0x00, 0x00, 0x15, 0x00, 0x00, 0x00,
    0x01, 0x00, 0x00, 0x00, 0x08, 0x00, 0x00, 0x00, 0x20, 0x00, 0x00, 0x00,
    0x73, 0x65, 0x71, 0x75, 0x65, 0x6e, 0x74, 0x69, 0x61, 0x6c, 0x2f, 0x6d,
    0x61, 0x78, 0x5f, 0x70, 0x6f, 0x6f, 0x6c, 0x69, 0x6e, 0x67, 0x32, 0x64,
    0x2f, 0x4d, 0x61, 0x78, 0x50, 0x6f, 0x6f, 0x6c, 0x00, 0x00, 0x00, 0x00,
    0x34, 0xd5, 0xff, 0xff, 0x00, 0x00, 0x0e, 0x00, 0x14, 0x00, 0x00, 0x00,
    0x08, 0x00, 0x0c, 0x00, 0x07, 0x00, 0x10, 0x00, 0x0e, 0x00, 0x00, 0x00,
    0x00, 0x00, 0x00, 0x01, 0x30, 0x00, 0x00, 0x00, 0x24, 0x00, 0x00, 0x00,
    0x10, 0x00, 0x00, 0x00, 0x0c, 0x00, 0x10, 0x00, 0x00, 0x00, 0x04, 0x00,
    0x08, 0x00, 0x0f, 0x00, 0x0c, 0x00, 0x00, 0x00, 0x01, 0x00, 0x00, 0x00,
    0x01, 0x00, 0x00, 0x00, 0x00, 0x00, 0x00, 0x01, 0x01, 0x00, 0x00, 0x00,
    0x0a, 0x00, 0x00, 0x00, 0x03, 0x00, 0x00, 0x00, 0x00, 0x00, 0x00, 0x00,
    0x06, 0x00, 0x00, 0x00, 0x08, 0x00, 0x00, 0x00, 0x00, 0x00, 0x0a, 0x00,
    0x0c, 0x00, 0x07, 0x00, 0x00, 0x00, 0x08, 0x00, 0x0a, 0x00, 0x00, 0x00,
    0x00, 0x00, 0x00, 0x03, 0x01, 0x00, 0x00, 0x00, 0x9e, 0xd5, 0xff, 0xff,
    0x10, 0x00, 0x00, 0x00, 0x0b, 0x00, 0x00, 0x00, 0x1c, 0x00, 0x00, 0x00,
    0x28, 0x00, 0x00, 0x00, 0x04, 0x00, 0x00, 0x00, 0x01, 0x00, 0x00, 0x00,
    0x40, 0x00, 0x00, 0x00, 0x03, 0x00, 0x00, 0x00, 0x08, 0x00, 0x00, 0x00,
    0x0b, 0x00, 0x00, 0x00, 0x74, 0x66, 0x6c, 0x2e, 0x63, 0x6f, 0x6e, 0x76,
    0x5f, 0x32, 0x64, 0x00, 0x88, 0xd5, 0xff, 0xff, 0x7e, 0xd6, 0xff, 0xff,
    0x04, 0x00, 0x00, 0x00, 0x40, 0x00, 0x00, 0x00, 0xc3, 0xe4, 0x21, 0xc0,
    0x58, 0x12, 0x3a, 0xbf, 0xeb, 0xb7, 0x19, 0xbf, 0x14, 0x83, 0x8e, 0xbf,
    0x5f, 0x68, 0xbb, 0xbf, 0x76, 0x7b, 0xfa, 0xbc, 0x5d, 0x59, 0x0c, 0x40,
    0x75, 0x53, 0x9e, 0xbf, 0xe4, 0xa6, 0xe2, 0xbe, 0x15, 0x4a, 0xaf, 0xbf,
    0x94, 0xcd, 0x4f, 0xbf, 0xb9, 0x48, 0xf2, 0xbe, 0xe1, 0xd8, 0x38, 0xbf,
    0x7f, 0xd1, 0x80, 0xbf, 0x00, 0x2b, 0x7c, 0x40, 0xe0, 0xc7, 0x44, 0x3e,
    0x26, 0xd6, 0xff, 0xff, 0x10, 0x00, 0x00, 0x00, 0x0a, 0x00, 0x00, 0x00,
    0x10, 0x00, 0x00, 0x00, 0x20, 0x00, 0x00, 0x00, 0x01, 0x00, 0x00, 0x00,
    0x10, 0x00, 0x00, 0x00, 0x0d, 0x00, 0x00, 0x00, 0x73, 0x74, 0x64, 0x2e,
    0x63, 0x6f, 0x6e, 0x73, 0x74, 0x61, 0x6e, 0x74, 0x31, 0x00, 0x00, 0x00,
    0x08, 0xd6, 0xff, 0xff, 0xfe, 0xd6, 0xff, 0xff, 0x04, 0x00, 0x00, 0x00,
    0x20, 0x00, 0x00, 0x00, 0xc8, 0x7b, 0x75, 0xbf, 0xa8, 0xd3, 0x07, 0xc0,
    0xc0, 0x8d, 0xb3, 0xbf, 0xfd, 0x75, 0xe8, 0xbf, 0xa6, 0x23, 0xca, 0xbf,
    0x28, 0x99, 0x62, 0xc0, 0x00, 0x09, 0xc2, 0xbf, 0x92, 0xd5, 0xc6, 0xbe,
    0x86, 0xd6, 0xff, 0xff, 0x10, 0x00, 0x00, 0x00, 0x09, 0x00, 0x00, 0x00,
    0x10, 0x00, 0x00, 0x00, 0x20, 0x00, 0x00, 0x00, 0x01, 0x00, 0x00, 0x00,
    0x08, 0x00, 0x00, 0x00, 0x0c, 0x00, 0x00, 0x00, 0x73, 0x74, 0x64, 0x2e,
    0x63, 0x6f, 0x6e, 0x73, 0x74, 0x61, 0x6e, 0x74, 0x00, 0x00, 0x00, 0x00,
    0x68, 0xd6, 0xff, 0xff, 0x5e, 0xd7, 0xff, 0xff, 0x04, 0x00, 0x00, 0x00,
    0x00, 0x08, 0x00, 0x00, 0x57, 0x41, 0x69, 0xbe, 0x59, 0x39, 0x6b, 0xbe,
    0x10, 0x00, 0x7a, 0xbd, 0xc0, 0x1c, 0x02, 0xbe, 0xcb, 0x19, 0x7f, 0xbe,
    0x18, 0x3a, 0xd2, 0xbe, 0xc6, 0x07, 0xb3, 0xbd, 0xe6, 0xc2, 0x8a, 0xbd,
    0x4a, 0xa1, 0x2a, 0xbe, 0x31, 0x61, 0x56, 0xbe, 0x91, 0x03, 0x71, 0xbd,
    0xfd, 0x9c, 0x16, 0xbe, 0x10, 0x70, 0x48, 0x3c, 0xf9, 0xc6, 0x41, 0xbe,
    0xd8, 0xd1, 0x90, 0xbe, 0x6d, 0x6e, 0x79, 0xbe, 0x51, 0x98, 0xb7, 0x3d,
    0x5e, 0xd9, 0x8e, 0xbd, 0x95, 0x77, 0xd1, 0xbc, 0x30, 0x56, 0x5b, 0xbd,
    0xd3, 0x90, 0x0d, 0x3c, 0x68, 0x01, 0xd4, 0x3e, 0xaf, 0x41, 0xdb, 0xbd,
    0xa4, 0xd8, 0x1f, 0x3c, 0xa0, 0x6a, 0x5c, 0x3e, 0x59, 0x64, 0xe0, 0x3e,
    0x74, 0xea, 0x60, 0x3c, 0x9f, 0xee, 0x8c, 0x3e, 0xa6, 0x09, 0xda, 0x3b,
    0x0a, 0x2e, 0xeb, 0x3e, 0x92, 0x2d, 0x77, 0x3d, 0x1a, 0x54, 0xa0, 0xbd,
    0xf8, 0xf1, 0xc5, 0xbe, 0x8a, 0xdf, 0x98, 0x3e, 0x53, 0x4b, 0x28, 0xbe,
    0x3f, 0xfb, 0xc7, 0xbe, 0xd1, 0x7a, 0x98, 0x3e, 0xe7, 0xb3, 0xa4, 0x3e,
    0xa6, 0x63, 0x94, 0xbe, 0x25, 0x49, 0x0c, 0xbe, 0xf8, 0x2e, 0x54, 0xbe,
    0x8b, 0xb6, 0x9d, 0xbd, 0x97, 0xa0, 0xc4, 0xbc, 0x93, 0x86, 0x0b, 0xbe,
    0xf4, 0x23, 0xd5, 0xbd, 0xbf, 0x5a, 0xc4, 0x3e, 0x7b, 0x16, 0xcb, 0xbe,
    0xf1, 0xa9, 0x01, 0xbe, 0x84, 0xa2, 0x9b, 0x3c, 0xdf, 0xc3, 0xa5, 0xbd,
    0x6e, 0x8d, 0x9e, 0xbd, 0x90, 0x84, 0xe1, 0x3d, 0x96, 0x13, 0x32, 0xbc,
    0xf3, 0xb9, 0x9b, 0xbc, 0x9d, 0x0f, 0x0d, 0xbe, 0x1f, 0x7f, 0x48, 0xbd,
    0x47, 0xbe, 0xef, 0xbd, 0x4a, 0xce, 0x07, 0xbd, 0x7c, 0xe9, 0x0c, 0xbe,
    0x50, 0x93, 0x16, 0x3c, 0x65, 0x6d, 0x51, 0xbe, 0x66, 0xa3, 0xb1, 0xbe,
    0xfa, 0x6a, 0x9a, 0xbe, 0xdf, 0x2e, 0xa6, 0xbe, 0x4a, 0xac, 0x76, 0xbe,
    0xd7, 0x11, 0xa5, 0xbe, 0x21, 0x55, 0xdb, 0x3c, 0x7a, 0x29, 0x40, 0xbe,
    0x41, 0x78, 0x8d, 0xbe, 0xf0, 0xa0, 0xa3, 0xbd, 0x2b, 0x28, 0xa6, 0xbe,
    0x48, 0x44, 0xf9, 0xbd, 0x07, 0x57, 0x4d, 0xbe, 0x7a, 0xae, 0x40, 0xbe,
    0x55, 0xb8, 0x37, 0x3c, 0xf5, 0x12, 0x21, 0xbe, 0x50, 0x5d, 0x9a, 0xbe,
    0x13, 0xd7, 0x00, 0xbe, 0x4b, 0x15, 0x27, 0xbe, 0xa0, 0x44, 0xcf, 0xbd,
    0x15, 0xff, 0x9b, 0xbd, 0x19, 0xe4, 0x32, 0xbe, 0x0d, 0xa9, 0x89, 0x3c,
    0xad, 0xf8, 0x17, 0xbe, 0x77, 0xe6, 0xfb, 0xbd, 0x72, 0x39, 0x76, 0xbe,
    0x1c, 0x03, 0x82, 0x3d, 0x97, 0x9b, 0x9d, 0x3e, 0xfb, 0xfd, 0x8b, 0xbd,
    0xda, 0x8e, 0x28, 0xbe, 0xdb, 0x54, 0x04, 0xbd, 0x8d, 0x04, 0x35, 0xbe,
    0xa6, 0x6d, 0x00, 0x3c, 0xfa, 0x9e, 0x93, 0xbe, 0x90, 0xc7, 0x40, 0x3f,
    0x92, 0x85, 0x9c, 0xbd, 0x26, 0xe7, 0x67, 0x3e, 0x78, 0x8a, 0xfd, 0x3d,
    0xa5, 0x18, 0xba, 0xbb, 0xd9, 0x46, 0xf5, 0x3e, 0x72, 0x26, 0x79, 0x3e,
    0xf8, 0x2d, 0x55, 0x3b, 0x3f, 0x20, 0x90, 0x3e, 0x3e, 0xf6, 0x33, 0x3d,
    0xec, 0xe2, 0x54, 0xbe, 0x30, 0xab, 0xa3, 0xbd, 0x15, 0x62, 0xb6, 0xbd,
    0x9b, 0x52, 0xc7, 0xbd, 0xee, 0x9d, 0xde, 0xbb, 0x05, 0xc9, 0xb5, 0xbd,
    0x9f, 0x43, 0x97, 0xbd, 0x6f, 0xce, 0x06, 0xbe, 0x83, 0xa8, 0x58, 0xbe,
    0xf7, 0xd1, 0xa2, 0xbd, 0x6c, 0xab, 0xf1, 0xbd, 0xb4, 0x14, 0xc3, 0xbd,
    0xa6, 0xee, 0x08, 0xbe, 0xca, 0x6f, 0x89, 0xbe, 0x2e, 0x42, 0x32, 0x3d,
    0xcd, 0x3d, 0x92, 0xbc, 0xf2, 0x88, 0x88, 0xbe, 0x00, 0x8c, 0x24, 0xbe,
    0x6a, 0x37, 0xd4, 0xbd, 0xcf, 0x7f, 0x16, 0xbe, 0x5e, 0x16, 0x5c, 0xbe,
    0xb9, 0x30, 0x84, 0xbe, 0xc1, 0x40, 0x1f, 0x3c, 0x5f, 0xef, 0x24, 0x3e,
    0x16, 0x0e, 0x69, 0x3e, 0xd0, 0xea, 0x03, 0x3e, 0x16, 0x2c, 0x96, 0x3d,
    0xfc, 0x58, 0xb5, 0xbd, 0x85, 0x8d, 0x20, 0xbe, 0x94, 0xd5, 0x5f, 0x3d,
    0xbe, 0x90, 0x63, 0x3e, 0xbf, 0x4d, 0x5f, 0xbe, 0x7b, 0x9f, 0x17, 0xba,
    0xbb, 0x79, 0xe6, 0xbd, 0x75, 0x68, 0xfa, 0xbd, 0x76, 0xc0, 0xc1, 0x3e,
    0x6f, 0x83, 0x75, 0xbe, 0xd0, 0x8a, 0x76, 0xbc, 0x2f, 0x1c, 0xda, 0x3a,
    0x0d, 0xbd, 0x28, 0x3d, 0xf8, 0x18, 0x01, 0xbe, 0x69, 0x11, 0x30, 0xbe,
    0x72, 0x04, 0x33, 0xbe, 0x14, 0xeb, 0x03, 0xbe, 0x39, 0x43, 0x82, 0xbe,
    0x54, 0x92, 0x6b, 0xbe, 0x51, 0x46, 0x5d, 0x3e, 0xd4, 0x14, 0x33, 0x3e,
    0x22, 0x17, 0x9e, 0xbe, 0xe9, 0x02, 0xa4, 0xbe, 0x74, 0x63, 0x48, 0xbe,
    0x41, 0x12, 0x1a, 0xbe, 0xda, 0x70, 0x9c, 0xbe, 0x1f, 0x0d, 0xb2, 0xbe,
    0x6a, 0xd2, 0x53, 0x3e, 0x22, 0x9a, 0x3e, 0x3d, 0xee, 0x32, 0xf7, 0x3d,
    0x51, 0x3e, 0x0c, 0xbe, 0xe3, 0x78, 0x08, 0xbe, 0xd1, 0xc7, 0x09, 0x3e,
    0x7d, 0x2b, 0xc4, 0xbd, 0xff, 0xc1, 0xe8, 0xbd, 0xe4, 0x08, 0x3a, 0xbd,
    0x8f, 0x5b, 0xf7, 0xbc, 0xd9, 0xbf, 0x1d, 0x3d, 0x90, 0xca, 0x93, 0xbd,
    0xf7, 0x37, 0x97, 0x3d, 0x7e, 0xe2, 0x39, 0x3e, 0x70, 0x89, 0x97, 0xbd,
    0x7e, 0x9f, 0x80, 0xbe, 0x30, 0x5b, 0xf4, 0xbd, 0x1f, 0x10, 0x57, 0xbe,
    0x25, 0xc5, 0x02, 0x3e, 0x33, 0x9c, 0xd1, 0x3c, 0xe1, 0xc2, 0x71, 0xbd,
    0x65, 0xbd, 0xd8, 0xbd, 0xbc, 0x87, 0x9b, 0xbd, 0x06, 0x15, 0xa4, 0xbd,
    0x2d, 0x0c, 0x63, 0x3e, 0xbd, 0x1b, 0xf2, 0xbe, 0x47, 0xe5, 0xea, 0x3d,
    0xe4, 0xcc, 0x65, 0xbe, 0x82, 0x84, 0x78, 0xbc, 0xe4, 0x8d, 0xb8, 0xbe,
    0xe4, 0x8d, 0x45, 0xbe, 0x38, 0xc3, 0x40, 0x3d, 0xc7, 0x0e, 0x61, 0xbe,
    0xe2, 0x1d, 0x47, 0xbe, 0xf2, 0x35, 0xf4, 0xbd, 0x4d, 0x3b, 0xa8, 0xbd,
    0x25, 0x90, 0x4e, 0xbe, 0xd2, 0x41, 0x8e, 0xbd, 0xe4, 0x13, 0x8a, 0x3b,
    0x77, 0x53, 0xc5, 0x3d, 0x37, 0xb0, 0x95, 0x3c, 0x76, 0x75, 0xb1, 0xbd,
    0xcb, 0x91, 0xc5, 0x3d, 0xd3, 0x7d, 0x72, 0xbd, 0xef, 0xa6, 0xf4, 0xbd,
    0x67, 0x55, 0xdc, 0xbc, 0x53, 0xca, 0x25, 0xbe, 0x9b, 0x72, 0x98, 0x3d,
    0x19, 0x39, 0xca, 0x3c, 0xaf, 0x4c, 0x5a, 0x3e, 0x97, 0x23, 0x91, 0x3e,
    0xdf, 0x32, 0x88, 0xbd, 0xec, 0x2a, 0xa6, 0xbe, 0x49, 0x96, 0x88, 0xbd,
    0x00, 0x5f, 0x27, 0xbd, 0xc6, 0x5b, 0xbd, 0x3c, 0x5c, 0x9b, 0xa4, 0x3d,
    0x11, 0xa5, 0xb4, 0x3d, 0x0e, 0x30, 0x1e, 0x3e, 0x5b, 0x06, 0x13, 0x3e,
    0x25, 0x54, 0x9d, 0xbe, 0xec, 0xf3, 0xfa, 0xbd, 0xfd, 0xfa, 0x8e, 0x3c,
    0xee, 0xf2, 0xf4, 0xbd, 0x70, 0x04, 0xc5, 0x3d, 0x98, 0x7f, 0x7f, 0x3e,
    0x30, 0x50, 0x59, 0xbe, 0xee, 0x54, 0x8e, 0xbd, 0x4a, 0x73, 0x62, 0xbe,
    0x3d, 0x96, 0xc2, 0xbe, 0x20, 0x4e, 0xbe, 0x3e, 0xe9, 0xd2, 0x64, 0x3e,
    0x10, 0xd3, 0xd4, 0x3e, 0x32, 0x90, 0x9f, 0x37, 0x7f, 0xa8, 0x03, 0xbf,
    0x17, 0xb1, 0x15, 0xbe, 0x08, 0xfd, 0x91, 0xbe, 0x59, 0xfa, 0xbb, 0xbe,
    0x1e, 0x16, 0xa2, 0x3d, 0xf4, 0x1b, 0xb1, 0x3d, 0xb5, 0xfc, 0xa8, 0xbd,
    0xda, 0x9d, 0x6f, 0xbe, 0xdb, 0x69, 0xdf, 0xbd, 0x83, 0xcc, 0xde, 0xbd,
    0x1c, 0xe9, 0x05, 0xbd, 0x6c, 0xb8, 0x33, 0xbd, 0x7d, 0x2b, 0xd5, 0x3d,
    0xa1, 0x10, 0x56, 0x3e, 0xf3, 0x8b, 0x86, 0xbe, 0x4e, 0xb0, 0x43, 0xbc,
    0x20, 0x83, 0x22, 0x3d, 0x72, 0xb4, 0xc5, 0xbd, 0x33, 0x72, 0xc9, 0x3e,
    0x97, 0x11, 0x01, 0x3c, 0x9a, 0x82, 0xee, 0x3c, 0xd7, 0xf2, 0xa3, 0xbd,
    0xd5, 0x71, 0x7d, 0x3d, 0xa1, 0xfa, 0x37, 0xbd, 0xf6, 0x5d, 0xdc, 0xbe,
    0x09, 0x35, 0xe5, 0xbe, 0x8e, 0x45, 0xc1, 0x3d, 0x83, 0xaf, 0x77, 0xbe,
    0xf4, 0x21, 0xee, 0xbe, 0x5e, 0xce, 0xf4, 0xbd, 0x6a, 0xbc, 0x80, 0xbe,
    0x6f, 0xfa, 0x51, 0xbe, 0xce, 0x09, 0x8a, 0xbc, 0x7a, 0xd6, 0x84, 0xbe,
    0x37, 0x96, 0x87, 0xbe, 0xf9, 0xb6, 0x00, 0xbf, 0xe8, 0x95, 0xbc, 0x3d,
    0x6c, 0xb8, 0xe4, 0xbe, 0x83, 0xe1, 0xff, 0x3e, 0x01, 0x97, 0x7d, 0x3d,
    0x49, 0xef, 0xaf, 0xbe, 0xb3, 0xa0, 0x7e, 0xbd, 0xe7, 0x02, 0x2d, 0xbe,
    0x0f, 0x61, 0xeb, 0x3c, 0xde, 0x4f, 0x0b, 0x3e, 0xb5, 0x23, 0x83, 0x3e,
    0x7b, 0x1b, 0x76, 0xbe, 0xf3, 0x68, 0xba, 0xbc, 0xe8, 0xf3, 0xc4, 0xbc,
    0x6e, 0xa7, 0x87, 0xbc, 0xe9, 0xc2, 0xbe, 0x3d, 0x0f, 0xa8, 0x01, 0x3e,
    0x54, 0x03, 0x80, 0x3e, 0x60, 0xb0, 0x5b, 0xbd, 0x11, 0xa9, 0x22, 0xbe,
    0xae, 0xb8, 0xab, 0xbd, 0x61, 0xf6, 0x4a, 0xbd, 0x1c, 0x21, 0x3f, 0xbe,
    0x69, 0x78, 0x59, 0xbe, 0x80, 0x15, 0x33, 0xbe, 0x28, 0x36, 0xdf, 0xbd,
    0x08, 0x7e, 0x80, 0x3e, 0x25, 0x08, 0x20, 0xbe, 0xab, 0x77, 0x9a, 0x3e,
    0xf2, 0x62, 0x57, 0xbd, 0xd5, 0xa2, 0x68, 0xbe, 0xfc, 0x28, 0x06, 0x3d,
    0x11, 0x1b, 0x93, 0xbd, 0x52, 0xc8, 0xc5, 0xbc, 0x2b, 0xd8, 0xb7, 0x3c,
    0xc5, 0x6b, 0x28, 0x3e, 0xb4, 0xb2, 0x12, 0x3f, 0x01, 0xcd, 0x24, 0xbd,
    0x12, 0xa1, 0x9c, 0xbe, 0x43, 0x08, 0x44, 0xbd, 0x2a, 0x42, 0xc4, 0xbd,
    0x4e, 0xbc, 0x19, 0xbc, 0x4e, 0x49, 0x7e, 0x38, 0xd0, 0x99, 0xf8, 0xbc,
    0x9c, 0x3b, 0x11, 0x3d, 0x0c, 0x6c, 0x97, 0xbc, 0x4a, 0xde, 0x6d, 0xbe,
    0xc0, 0x63, 0xf7, 0x3b, 0x77, 0x50, 0x7f, 0x3e, 0x1e, 0xde, 0xba, 0xbd,
    0x90, 0x16, 0x70, 0x3e, 0xf1, 0x3d, 0xf9, 0x3d, 0x5d, 0xb8, 0xac, 0x3e,
    0x20, 0xcc, 0x5e, 0xbe, 0xdd, 0xcc, 0xbd, 0xbe, 0x63, 0xba, 0x3f, 0xbc,
    0xbc, 0x07, 0x0b, 0xbe, 0x36, 0xee, 0x01, 0xbf, 0xb7, 0x02, 0x3e, 0xbe,
    0xfc, 0xf9, 0xa5, 0xbe, 0x0e, 0xd6, 0x88, 0xbe, 0x6e, 0x95, 0x8a, 0xbb,
    0xcf, 0xc8, 0xa3, 0xbe, 0x73, 0xeb, 0xaa, 0xbc, 0xe7, 0x38, 0x2f, 0xbe,
    0xb6, 0xda, 0x58, 0xbf, 0xe3, 0x86, 0xaa, 0xbe, 0x30, 0xaa, 0x17, 0x3e,
    0x30, 0xce, 0x6c, 0x3d, 0x66, 0x21, 0x4a, 0xbe, 0xe4, 0xd9, 0x69, 0xbe,
    0xa8, 0x5f, 0x7e, 0xbe, 0x53, 0xd5, 0x60, 0xbe, 0x4f, 0x35, 0xcc, 0x3d,
    0xca, 0xef, 0x64, 0xbd, 0xd6, 0x8c, 0x0b, 0x3f, 0xe0, 0x16, 0x14, 0x3e,
    0xe0, 0x76, 0xfb, 0xbb, 0x67, 0x9a, 0xc1, 0xbd, 0xc3, 0x6d, 0xa9, 0xbd,
    0x49, 0x13, 0x7d, 0x3d, 0xa8, 0xc5, 0x01, 0x3d, 0xb5, 0x85, 0xb7, 0x3e,
    0x5a, 0x57, 0xac, 0x3d, 0x09, 0x29, 0x9a, 0x3e, 0x1a, 0x44, 0x18, 0xbe,
    0x58, 0xc7, 0xba, 0xbd, 0x69, 0x79, 0x90, 0xbd, 0x9d, 0x79, 0x2d, 0xbe,
    0x65, 0xa0, 0x81, 0xbe, 0x5c, 0x1f, 0x9c, 0xbe, 0xfa, 0x85, 0xd5, 0xbc,
    0xcd, 0x22, 0x2c, 0xbd, 0x97, 0x44, 0x5f, 0xbe, 0x6c, 0x58, 0xb9, 0x3d,
    0x48, 0xed, 0x58, 0xbf, 0xf7, 0xd7, 0x1f, 0xbf, 0xb1, 0xd4, 0x96, 0x3e,
    0x02, 0x00, 0x07, 0x3e, 0x48, 0xbc, 0xea, 0x3c, 0x3b, 0x54, 0x56, 0x3d,
    0xad, 0xf7, 0x5a, 0xbe, 0x55, 0x03, 0xb8, 0xbb, 0x47, 0x5e, 0x33, 0xbe,
    0x60, 0xfa, 0x75, 0xbd, 0xc4, 0x0e, 0x55, 0x3e, 0x69, 0x96, 0xa6, 0x3d,
    0xb7, 0x6f, 0x99, 0xbe, 0xa6, 0xe7, 0x46, 0xbc, 0x49, 0x9c, 0x08, 0x3e,
    0xc7, 0xcb, 0xa1, 0x3c, 0x2a, 0xd3, 0x98, 0xbd, 0xd1, 0x2e, 0x11, 0x3e,
    0x50, 0x22, 0xaf, 0x3d, 0xba, 0x82, 0x9b, 0x3d, 0x48, 0x58, 0x3b, 0x38,
    0xc5, 0xed, 0x2b, 0x3e, 0xc7, 0xad, 0xbe, 0x3d, 0x2a, 0xaf, 0xd4, 0x3c,
    0x59, 0x8b, 0xdd, 0xbd, 0xa2, 0xff, 0xdd, 0xbd, 0xf7, 0x58, 0x7d, 0xbe,
    0xf9, 0x2f, 0x53, 0xbe, 0xaf, 0x8f, 0xa0, 0xbc, 0xe1, 0x94, 0x03, 0x3f,
    0x3e, 0xbd, 0x02, 0x3f, 0x01, 0x4e, 0xc3, 0x3c, 0xed, 0xc2, 0x1d, 0xbe,
    0x1f, 0xe9, 0x7b, 0xbe, 0xdf, 0x36, 0xe0, 0x3b, 0xf6, 0x0c, 0xc6, 0xbe,
    0x52, 0x21, 0x92, 0xbd, 0xfa, 0x53, 0x1c, 0xbd, 0x57, 0xab, 0xb6, 0xbe,
    0x3c, 0x32, 0xae, 0x3c, 0xcb, 0xb6, 0xc3, 0xbd, 0xc1, 0x11, 0xf3, 0xbd,
    0x99, 0xe7, 0x4b, 0x3d, 0xcf, 0x2a, 0x0c, 0x3e, 0x45, 0xe4, 0x95, 0xbd,
    0xe5, 0x5f, 0x95, 0xbe, 0xa6, 0x49, 0x80, 0xbe, 0x88, 0xa7, 0x33, 0xbd,
    0x06, 0x7d, 0x8b, 0xbc, 0x0f, 0x85, 0xb2, 0xbd, 0x00, 0x1d, 0x12, 0x3d,
    0x78, 0x4a, 0xc7, 0x3e, 0x51, 0xdc, 0xa1, 0xbc, 0x87, 0xf3, 0x6c, 0xbe,
    0x03, 0x6b, 0x71, 0x3e, 0x10, 0x56, 0xc1, 0xbc, 0xf3, 0x60, 0x19, 0xbe,
    0x3f, 0x22, 0xc1, 0xbd, 0x60, 0x3b, 0x0a, 0x3b, 0x42, 0x8d, 0xc7, 0xbd,
    0xa9, 0x7c, 0xec, 0x3e, 0x5c, 0xa2, 0xdf, 0x3e, 0x2a, 0x49, 0x33, 0x3e,
    0xc1, 0x2a, 0x1a, 0xbc, 0x31, 0x52, 0x32, 0xbe, 0x60, 0x4b, 0x04, 0xbe,
    0xc1, 0x81, 0xa3, 0x3c, 0xe4, 0x40, 0x64, 0x3d, 0x32, 0xdb, 0x9b, 0xbb,
    0x74, 0xe1, 0x33, 0xbd, 0x61, 0x38, 0x40, 0x3d, 0x32, 0xee, 0xa1, 0x3c,
    0x9f, 0x24, 0x1c, 0xbe, 0x14, 0x5e, 0xb0, 0xbc, 0x74, 0x28, 0x3e, 0x3c,
    0xa5, 0x6c, 0xa8, 0x39, 0x45, 0xe5, 0x72, 0xbd, 0xea, 0xee, 0x2c, 0xbc,
    0x2c, 0x5e, 0x2b, 0x3e, 0xf8, 0x90, 0xf3, 0x3a, 0x14, 0x7a, 0x2d, 0xbe,
    0x4c, 0xe4, 0x04, 0x3c, 0xc1, 0x0c, 0xe6, 0xba, 0x28, 0x6d, 0x0a, 0xbe,
    0x23, 0xdf, 0x84, 0xbd, 0x78, 0x31, 0x88, 0xbd, 0x52, 0x2e, 0xa8, 0xbe,
    0x78, 0x46, 0x95, 0xbe, 0xca, 0x9e, 0xd5, 0xbd, 0xdc, 0x94, 0xb5, 0xbe,
    0x3f, 0xfc, 0xd3, 0xbe, 0x7d, 0xc8, 0x19, 0xbe, 0xc7, 0xb6, 0x99, 0xbe,
    0xc6, 0x40, 0x5e, 0xbe, 0x7d, 0x3c, 0x3d, 0x3c, 0x55, 0xa3, 0x1d, 0xbe,
    0x23, 0xc3, 0x89, 0xbd, 0x73, 0x5f, 0xe2, 0xbb, 0x53, 0x9a, 0x6b, 0xbe,
    0x42, 0xd5, 0xd3, 0x3e, 0x12, 0x74, 0x64, 0xbe, 0xad, 0x3b, 0x4a, 0x3b,
    0x44, 0x2d, 0x34, 0x3d, 0x70, 0x01, 0xa4, 0xbd, 0x80, 0xa3, 0x0c, 0xbc,
    0x10, 0x8b, 0xcb, 0xbc, 0xd6, 0xc0, 0x59, 0xbe, 0xee, 0x98, 0x93, 0xbe,
    0x2a, 0x55, 0xcc, 0xbd, 0x90, 0x69, 0x84, 0xbe, 0x4e, 0x81, 0x65, 0x3d,
    0x5d, 0x9c, 0x1e, 0xbd, 0x8a, 0x02, 0x85, 0x3d, 0x46, 0x0d, 0x1d, 0x3d,
    0x20, 0xf5, 0xf5, 0xbd, 0x2a, 0x41, 0xb3, 0xbd, 0x09, 0x57, 0x8d, 0x3d,
    0xb0, 0xdd, 0x95, 0xbd, 0x50, 0x8a, 0x35, 0xbd, 0xb4, 0xfe, 0x8e, 0x3e,
    0x02, 0x9a, 0xac, 0xbc, 0x97, 0x43, 0x22, 0xbd, 0x97, 0x83, 0x21, 0x3e,
    0xe9, 0xb8, 0x1c, 0xbe, 0x7e, 0xe2, 0xcc, 0x3d, 0x54, 0xcd, 0x3d, 0xbd,
    0x24, 0x4d, 0xbb, 0x3d, 0x99, 0x5c, 0x0a, 0x3d, 0xf1, 0x7a, 0xbc, 0xbd,
    0xe9, 0x89, 0x9c, 0xbd, 0x96, 0x4d, 0xd0, 0x3d, 0x60, 0x15, 0x9f, 0xbd,
    0x2f, 0x6c, 0x49, 0x3c, 0xd9, 0x60, 0x1d, 0xbe, 0xdd, 0xd0, 0x08, 0xbe,
    0xe4, 0xe7, 0x07, 0xbd, 0xa0, 0xf1, 0x2f, 0xbd, 0x45, 0xbc, 0x3b, 0xbd,
    0x9d, 0xe4, 0x66, 0x3d, 0x8a, 0x81, 0x60, 0x3e, 0xb6, 0x48, 0x36, 0xbd,
    0x92, 0xf5, 0x91, 0xbe, 0x0f, 0xe7, 0xc4, 0xbd, 0xf2, 0x50, 0x31, 0xbd,
    0x20, 0x46, 0x75, 0xbd, 0x68, 0xfd, 0xc7, 0xbd, 0xb1, 0xad, 0x3e, 0xbd,
    0x60, 0x95, 0x82, 0xbc, 0xd2, 0x84, 0x2d, 0xbb, 0x74, 0xc4, 0x2a, 0xbe,
    0xc6, 0xde, 0xff, 0xff, 0x10, 0x00, 0x00, 0x00, 0x08, 0x00, 0x00, 0x00,
    0x1c, 0x00, 0x00, 0x00, 0x38, 0x00, 0x00, 0x00, 0x04, 0x00, 0x00, 0x00,
    0x10, 0x00, 0x00, 0x00, 0x04, 0x00, 0x00, 0x00, 0x01, 0x00, 0x00, 0x00,
    0x08, 0x00, 0x00, 0x00, 0x1a, 0x00, 0x00, 0x00, 0x73, 0x65, 0x71, 0x75,
    0x65, 0x6e, 0x74, 0x69, 0x61, 0x6c, 0x2f, 0x63, 0x6f, 0x6e, 0x76, 0x32,
    0x64, 0x5f, 0x31, 0x2f, 0x43, 0x6f, 0x6e, 0x76, 0x32, 0x44, 0x00, 0x00,
    0xc0, 0xde, 0xff, 0xff, 0xb6, 0xdf, 0xff, 0xff, 0x04, 0x00, 0x00, 0x00,
    0x80, 0x01, 0x00, 0x00, 0x8e, 0x2d, 0x07, 0x3d, 0x33, 0xeb, 0x01, 0xbe,
    0x6c, 0x32, 0x0c, 0xbc, 0xa1, 0xfe, 0x3b, 0xbe, 0x77, 0x9d, 0x07, 0x3e,
    0xf4, 0x5c, 0xcc, 0xbe, 0x30, 0x96, 0x19, 0x3e, 0x39, 0x7d, 0xec, 0xbd,
    0xc2, 0xdd, 0x17, 0x3e, 0x6a, 0x87, 0x98, 0xbd, 0x63, 0x49, 0x83, 0xbd,
    0x2b, 0xb3, 0x8a, 0x3e, 0x17, 0x43, 0xac, 0x3b, 0x16, 0x78, 0x90, 0xbc,
    0x0a, 0x4a, 0x47, 0xbe, 0x64, 0x43, 0xef, 0x3d, 0xb4, 0x1d, 0xbd, 0xbd,
    0x7a, 0x75, 0x95, 0x3d, 0xb4, 0x6c, 0xaf, 0xbd, 0xe8, 0xc3, 0x35, 0xbd,
    0xa3, 0x78, 0x6b, 0x3d, 0x38, 0x7d, 0x0b, 0xbe, 0x48, 0xe2, 0x24, 0x3d,
    0x7e, 0x13, 0x2f, 0x3e, 0xf4, 0xd3, 0x9c, 0xbd, 0x24, 0xf8, 0x8b, 0xbb,
    0xfe, 0x3b, 0x2a, 0xbe, 0x7d, 0x47, 0xb0, 0xbd, 0x30, 0x22, 0x04, 0x3d,
    0x40, 0x50, 0x04, 0xbe, 0xa5, 0xe6, 0x42, 0xbd, 0x07, 0x7d, 0xa4, 0x3c,
    0x4f, 0xca, 0xba, 0xbd, 0xed, 0x78, 0x10, 0xbd, 0x27, 0xfc, 0x90, 0xbd,
    0x99, 0x39, 0x9b, 0xbd, 0x5b, 0x08, 0xf1, 0x3c, 0x98, 0xc0, 0xd8, 0x3d,
    0xe3, 0x34, 0x33, 0xbe, 0x24, 0xed, 0x37, 0xbe, 0x68, 0xef, 0xa3, 0x3c,
    0xbd, 0x97, 0x2b, 0xbe, 0x73, 0xf1, 0x8e, 0xbc, 0x79, 0x9b, 0x52, 0xbe,
    0x6f, 0x87, 0x72, 0xbd, 0x56, 0x58, 0x8b, 0x3c, 0x5e, 0xab, 0x34, 0xbe,
    0x93, 0x9b, 0x4b, 0x3e, 0xbc, 0x66, 0xe5, 0x3c, 0xb4, 0x39, 0x99, 0x3d,
    0x39, 0x6f, 0x3a, 0x3e, 0x4d, 0xff, 0x11, 0x3e, 0x2f, 0x49, 0x8b, 0x3e,
    0xc6, 0xbf, 0x61, 0x3e, 0x87, 0xc6, 0xc0, 0xbd, 0x79, 0x2e, 0xad, 0xbd,
    0xdd, 0xa1, 0x52, 0x3d, 0x66, 0x6e, 0xe3, 0xbd, 0x72, 0xd9, 0x87, 0xbe,
    0xe2, 0x51, 0xc0, 0xbe, 0x21, 0xdc, 0x4c, 0x3e, 0x52, 0x4b, 0xd3, 0x3e,
    0xf6, 0x74, 0x16, 0x3e, 0x59, 0xe1, 0xe6, 0xbd, 0xf2, 0x81, 0x4b, 0xbd,
    0x16, 0x9c, 0x21, 0x3d, 0xb4, 0xd4, 0xe8, 0xbd, 0xff, 0x0b, 0xa4, 0xbe,
    0x99, 0x7f, 0x34, 0xbe, 0x72, 0x20, 0x04, 0x3d, 0x3d, 0xec, 0xd2, 0xbd,
    0xa9, 0xea, 0x76, 0xbd, 0x1e, 0x4a, 0x22, 0xbe, 0xdd, 0x22, 0xd6, 0xbc,
    0x10, 0x87, 0x7f, 0x3c, 0x91, 0xf5, 0x07, 0xbf, 0xbd, 0x2f, 0xeb, 0xbd,
    0x03, 0xb6, 0xac, 0xbd, 0x39, 0xe7, 0x42, 0x3e, 0x80, 0xc5, 0xe6, 0xbd,
    0x9d, 0x82, 0x16, 0x3e, 0x2d, 0xd3, 0xce, 0x3e, 0xd7, 0x27, 0x18, 0x3e,
    0xfc, 0x9b, 0xa4, 0xbd, 0x10, 0xa4, 0x47, 0xbd, 0xae, 0x59, 0x86, 0x3d,
    0xb9, 0xb1, 0x04, 0x3e, 0x63, 0x76, 0x12, 0xbe, 0xdc, 0xac, 0xb4, 0xbe,
    0x98, 0x35, 0x84, 0xbe, 0x31, 0xa9, 0xbf, 0x3e, 0x34, 0x4d, 0x15, 0xbe,
    0x9f, 0xdf, 0xee, 0x3d, 0x4e, 0x97, 0xa1, 0xbd, 0x6c, 0x53, 0xdc, 0x3e,
    0x01, 0x9c, 0x80, 0xbc, 0x9e, 0xe0, 0xff, 0xff, 0x10, 0x00, 0x00, 0x00,
    0x07, 0x00, 0x00, 0x00, 0x1c, 0x00, 0x00, 0x00, 0x38, 0x00, 0x00, 0x00,
    0x04, 0x00, 0x00, 0x00, 0x08, 0x00, 0x00, 0x00, 0x04, 0x00, 0x00, 0x00,
    0x03, 0x00, 0x00, 0x00, 0x01, 0x00, 0x00, 0x00, 0x18, 0x00, 0x00, 0x00,
    0x73, 0x65, 0x71, 0x75, 0x65, 0x6e, 0x74, 0x69, 0x61, 0x6c, 0x2f, 0x63,
    0x6f, 0x6e, 0x76, 0x32, 0x64, 0x2f, 0x43, 0x6f, 0x6e, 0x76, 0x32, 0x44,
    0x00, 0x00, 0x00, 0x00, 0x98, 0xe0, 0xff, 0xff, 0x8e, 0xe1, 0xff, 0xff,
    0x04, 0x00, 0x00, 0x00, 0x00, 0x01, 0x00, 0x00, 0x8a, 0xea, 0x3a, 0xbc,
    0x71, 0x53, 0x2a, 0x3c, 0x8d, 0x1c, 0xf9, 0x3c, 0x7f, 0xa1, 0x42, 0xbd,
    0x9c, 0x6c, 0xd4, 0x3e, 0x8d, 0xeb, 0x8d, 0x3e, 0x9b, 0x77, 0x96, 0xbc,
    0xf0, 0xb9, 0xec, 0x3d, 0xb6, 0x69, 0xa6, 0xbd, 0x46, 0x2c, 0xa8, 0x3d,
    0x47, 0x45, 0x77, 0x3e, 0xcb, 0x10, 0x17, 0x3e, 0x39, 0xaa, 0xa6, 0x3d,
    0xfb, 0x01, 0x23, 0xbe, 0x39, 0x08, 0xd8, 0x3d, 0xc7, 0x5b, 0xa8, 0x3e,
    0xd8, 0xc9, 0xc0, 0x3b, 0x39, 0xb2, 0x7c, 0x3d, 0x82, 0xe9, 0xfe, 0x3d,
    0x5f, 0xfa, 0x8d, 0xbe, 0x4d, 0x8e, 0x2e, 0xbf, 0x1a, 0x94, 0x8c, 0x3e,
    0x9f, 0xb3, 0x50, 0xbd, 0x3f, 0xdc, 0xb6, 0x3d, 0x31, 0x66, 0xab, 0x3e,
    0xb6, 0x6f, 0x07, 0x3e, 0xa6, 0xb5, 0x2a, 0xbf, 0x4d, 0x27, 0x45, 0x3e,
    0xec, 0xee, 0xbf, 0x3d, 0xa7, 0x3a, 0x1f, 0xbe, 0xef, 0x71, 0xa1, 0x3d,
    0x42, 0x0f, 0x9e, 0x3e, 0xb1, 0xff, 0xb0, 0x3d, 0xef, 0x37, 0xb7, 0xbd,
    0x64, 0xf0, 0x8a, 0x3c, 0x5d, 0xd4, 0x81, 0x39, 0xf8, 0x72, 0x2d, 0xbe,
    0x1b, 0xcb, 0x73, 0x3e, 0x60, 0x3c, 0x00, 0xbe, 0xfe, 0x78, 0x1e, 0x3e,
    0xa4, 0xf8, 0xbd, 0x3e, 0xfd, 0xa1, 0x94, 0x3d, 0x57, 0x8e, 0x35, 0xbf,
    0x00, 0x7d, 0x3a, 0x3e, 0x68, 0x9f, 0xae, 0x3c, 0xd8, 0xee, 0xfe, 0xbd,
    0x5c, 0x56, 0x2d, 0xbc, 0x8a, 0xa1, 0xb5, 0x3e, 0xb1, 0x69, 0xe0, 0xbc,
    0x08, 0xca, 0x31, 0x3c, 0x44, 0xe6, 0xbf, 0x3d, 0xdb, 0x9f, 0xcd, 0xbd,
    0xd6, 0x52, 0x3a, 0xbe, 0x09, 0x4d, 0xf3, 0x3d, 0x4b, 0x3f, 0xc5, 0xbd,
    0x9d, 0x96, 0xb2, 0x3d, 0x5b, 0x02, 0x04, 0xbe, 0xde, 0x19, 0xc4, 0x3d,
    0x4b, 0x28, 0xfe, 0xbd, 0x42, 0x80, 0xa0, 0x3d, 0x3d, 0xb8, 0x0d, 0x3e,
    0xb6, 0x75, 0x6e, 0xbe, 0x1c, 0xb1, 0xf4, 0x3c, 0x67, 0xdc, 0x31, 0x3e,
    0xf6, 0xe1, 0xff, 0xff, 0x10, 0x00, 0x00, 0x00, 0x06, 0x00, 0x00, 0x00,
    0x14, 0x00, 0x00, 0x00, 0x30, 0x00, 0x00, 0x00, 0x02, 0x00, 0x00, 0x00,
    0x04, 0x00, 0x00, 0x00, 0x10, 0x00, 0x00, 0x00, 0x19, 0x00, 0x00, 0x00,
    0x73, 0x65, 0x71, 0x75, 0x65, 0x6e, 0x74, 0x69, 0x61, 0x6c, 0x2f, 0x64,
    0x65, 0x6e, 0x73, 0x65, 0x5f, 0x31, 0x2f, 0x4d, 0x61, 0x74, 0x4d, 0x75,
    0x6c, 0x00, 0x00, 0x00, 0xe8, 0xe1, 0xff, 0xff, 0xde, 0xe2, 0xff, 0xff,
    0x04, 0x00, 0x00, 0x00, 0x00, 0x1c, 0x00, 0x00, 0x57, 0x56, 0xfd, 0xbd,
    0x3a, 0x37, 0xdc, 0xbd, 0x71, 0x14, 0xeb, 0x3d, 0xe3, 0xdd, 0xef, 0xbd,
    0x80, 0x54, 0x8f, 0xbe, 0x9a, 0x3a, 0xb2, 0x3d, 0x34, 0xf3, 0x1f, 0x3d,
    0x1a, 0x3f, 0x68, 0xbe, 0x05, 0x00, 0x6a, 0xbe, 0x7d, 0xca, 0xd4, 0xbd,
    0x30, 0x22, 0x0e, 0x3e, 0x17, 0xe9, 0x2b, 0xbe, 0xcb, 0xad, 0xb3, 0x3e,
    0xc3, 0x2a, 0xa0, 0xbb, 0x68, 0xed, 0x97, 0xbe, 0x95, 0x18, 0xd8, 0xbd,
    0x83, 0x99, 0x0a, 0xbe, 0x3d, 0xc3, 0x80, 0x3e, 0x0a, 0x1c, 0x33, 0xbe,
    0x2b, 0x5d, 0x65, 0xbc, 0xe2, 0xdc, 0x56, 0xbe, 0xe2, 0x9c, 0x26, 0x3e,
    0x59, 0x72, 0x30, 0xbe, 0x52, 0xc4, 0x1e, 0x3e, 0x52, 0xbb, 0x9c, 0x3c,
    0x00, 0x45, 0x56, 0xbe, 0x36, 0x65, 0x67, 0xbd, 0xad, 0x8c, 0x1b, 0x3e,
    0x34, 0x90, 0x45, 0x3e, 0x7f, 0x93, 0x87, 0x3d, 0xf5, 0xf5, 0x9e, 0x3d,
    0xd4, 0x2e, 0xa0, 0x3d, 0xed, 0x45, 0x00, 0xbe, 0xf6, 0x2f, 0x4b, 0x3e,
    0x93, 0xe7, 0xaa, 0xbd, 0x67, 0x59, 0x7c, 0x3e, 0xe8, 0x8f, 0x77, 0xbc,
    0x06, 0xdf, 0xeb, 0xbd, 0x15, 0xd3, 0xb1, 0xbe, 0xaa, 0xdf, 0x12, 0x3e,
    0xeb, 0xa6, 0x86, 0x3c, 0x80, 0xc7, 0x6e, 0xbe, 0x87, 0xe5, 0x22, 0x3e,
    0xbe, 0x22, 0xf8, 0xbd, 0x86, 0x75, 0xcf, 0xbe, 0xbb, 0x51, 0x89, 0xbe,
    0xb8, 0xdf, 0xe3, 0xbd, 0xb0, 0x66, 0x2b, 0xbd, 0x59, 0xcd, 0x11, 0xbc,
    0x5d, 0x95, 0x95, 0xbd, 0x60, 0x4c, 0x67, 0xbe, 0x47, 0x71, 0xf0, 0x3d,
    0xcb, 0x4f, 0xfc, 0xbc, 0x42, 0x79, 0x87, 0xbd, 0xcc, 0xf6, 0xbf, 0x3b,
    0xbc, 0xe1, 0x6e, 0xbe, 0x83, 0xd4, 0xb2, 0xbd, 0xb4, 0xc1, 0x0a, 0xbe,
    0xb7, 0xa5, 0xb4, 0xbd, 0xf9, 0x17, 0xee, 0xbd, 0x7b, 0x5b, 0xd2, 0xbe,
    0x72, 0xc5, 0x4e, 0xbe, 0xa3, 0x95, 0xf2, 0xbb, 0x1d, 0xc9, 0x02, 0xbe,
    0x4d, 0x5c, 0xc3, 0x3c, 0x78, 0x45, 0x49, 0xbe, 0x7a, 0x93, 0xfc, 0x3d,
    0xbe, 0x24, 0x33, 0xbd, 0xed, 0xb7, 0x7a, 0x3d, 0xfe, 0x1f, 0x88, 0x3d,
    0xd7, 0x78, 0xe5, 0x3d, 0x15, 0x02, 0x87, 0xbe, 0x38, 0xa2, 0xbb, 0xbc,
    0xad, 0x3c, 0xf2, 0xbd, 0xa5, 0x66, 0xe7, 0x3d, 0x6a, 0x26, 0xa5, 0xbd,
    0xc1, 0xed, 0x83, 0x3d, 0x20, 0xb5, 0x3c, 0x3e, 0x24, 0x9b, 0xb0, 0x3b,
    0x03, 0x68, 0x83, 0xbd, 0x54, 0xd5, 0x06, 0xbe, 0x8c, 0xaa, 0xa6, 0xbd,
    0x8c, 0x70, 0x79, 0xbd, 0xb8, 0x5a, 0x73, 0xbd, 0x86, 0x22, 0x6b, 0xbd,
    0xe1, 0x95, 0xeb, 0x3d, 0xf3, 0x11, 0x48, 0x3e, 0x65, 0xee, 0x20, 0x3d,
    0x0f, 0x19, 0x97, 0xbd, 0xa1, 0x6c, 0xfa, 0xbd, 0x41, 0xd0, 0xd4, 0xbd,
    0x1c, 0xb8, 0xc1, 0x3d, 0x1d, 0x9d, 0x5b, 0x3e, 0x4c, 0x1b, 0xdc, 0x3c,
    0xec, 0xef, 0xf5, 0x3c, 0xa7, 0xa0, 0x45, 0x3c, 0xb0, 0xc7, 0x32, 0xbd,
    0x2e, 0x6d, 0x1a, 0x3e, 0x03, 0xaf, 0xc8, 0xbc, 0xe7, 0x2c, 0x12, 0x3c,
    0xa2, 0xa8, 0x69, 0xbe, 0xae, 0xef, 0x83, 0xbe, 0xb4, 0xca, 0xa7, 0xbd,
    0x68, 0x4e, 0xf9, 0x3d, 0x37, 0x48, 0x8a, 0xbd, 0x3a, 0x74, 0x41, 0xbe,
    0x68, 0xfb, 0x53, 0xbd, 0xfb, 0x9e, 0x18, 0x3d, 0x68, 0x67, 0x24, 0x3e,
    0x29, 0xdf, 0x36, 0x3d, 0x6e, 0x18, 0xa9, 0xbd, 0x8b, 0xc1, 0x87, 0xba,
    0xd4, 0x3a, 0xd1, 0x3c, 0x0f, 0xe7, 0x84, 0x3e, 0x15, 0xb9, 0x2c, 0x3e,
    0x01, 0x60, 0x1d, 0xbc, 0x19, 0xae, 0xb1, 0xbd, 0x01, 0xca, 0xd5, 0xbc,
    0x48, 0x68, 0xe4, 0xbc, 0x41, 0xd6, 0x0e, 0x3e, 0x56, 0x7e, 0x89, 0x3e,
    0xcd, 0xe5, 0xa7, 0x3d, 0xfd, 0x01, 0x5c, 0x3e, 0x19, 0x0d, 0x4c, 0x3e,
    0xab, 0xe5, 0x86, 0x3e, 0xee, 0xad, 0x7c, 0x3d, 0xa8, 0x25, 0x30, 0xbd,
    0x96, 0xf0, 0x7f, 0xbe, 0x3a, 0xb5, 0xc5, 0x3d, 0xd7, 0x01, 0x9c, 0xbe,
    0x3e, 0x3b, 0x08, 0xbd, 0x2c, 0xa1, 0x47, 0xbd, 0xfa, 0xad, 0x76, 0xbc,
    0xc2, 0x02, 0x13, 0x3e, 0x3c, 0xcd, 0xcf, 0xbd, 0xcf, 0x10, 0x3c, 0xbe,
    0x9f, 0x1e, 0x73, 0xbd, 0xb0, 0x22, 0x52, 0xbd, 0x51, 0xa0, 0xf9, 0xbd,
    0x41, 0xf9, 0x0d, 0x3e, 0xbd, 0xf3, 0xf7, 0x3c, 0x41, 0x0a, 0x8b, 0xbd,
    0xd8, 0x83, 0x5e, 0x3d, 0x6d, 0xf6, 0xcd, 0xbe, 0x6e, 0xac, 0xe8, 0xbe,
    0x70, 0x65, 0x2a, 0xbd, 0xee, 0x1d, 0x3f, 0xbe, 0x34, 0xd5, 0xbb, 0x3c,
    0x95, 0x9e, 0xde, 0x3d, 0x8e, 0xf6, 0xb8, 0x3d, 0x10, 0x41, 0xfe, 0xbd,
    0xdd, 0x12, 0x61, 0xbe, 0xce, 0x73, 0x4d, 0xbe, 0x44, 0x1c, 0x0e, 0xbd,
    0xe0, 0x2a, 0x0d, 0xbd, 0x7a, 0x0e, 0x3d, 0x3d, 0x5a, 0xca, 0xd1, 0x3b,
    0x8b, 0x64, 0x79, 0xbc, 0x2d, 0xa9, 0x8b, 0x3e, 0xaf, 0x82, 0xa3, 0xbe,
    0xa4, 0x1a, 0xee, 0xbe, 0xb0, 0x8b, 0xec, 0x3d, 0x55, 0x61, 0xe4, 0x3d,
    0x8b, 0x0c, 0x04, 0xbe, 0x70, 0xe1, 0x93, 0xbe, 0x3d, 0x87, 0x0c, 0x3e,
    0x9c, 0xf0, 0xa5, 0xbc, 0x31, 0x88, 0xa4, 0xbd, 0x80, 0x4d, 0x3c, 0xbd,
    0x5b, 0xc5, 0x9e, 0xbd, 0xd3, 0x0e, 0x11, 0x3a, 0xe0, 0xb1, 0x3b, 0xba,
    0xeb, 0xaf, 0x82, 0xbd, 0xa8, 0xdb, 0x87, 0xbd, 0x92, 0x73, 0xe8, 0x3d,
    0xf3, 0xe9, 0x94, 0xbe, 0xd5, 0xac, 0x31, 0xbd, 0xc2, 0x20, 0x12, 0xbe,
    0x92, 0xb5, 0xa9, 0x3e, 0x8a, 0x46, 0x19, 0xbf, 0x1d, 0xc2, 0x85, 0xbe,
    0xa6, 0x37, 0x6e, 0xbd, 0x32, 0x09, 0xd9, 0xbb, 0xbb, 0xeb, 0x0d, 0x3e,
    0x76, 0x9e, 0xdc, 0x3e, 0x3e, 0x04, 0x9e, 0xbc, 0x38, 0xc7, 0x3c, 0x3e,
    0xdc, 0xfc, 0x60, 0x3e, 0x6b, 0x5f, 0x59, 0x3d, 0xb6, 0xcd, 0x81, 0xbe,
    0x3d, 0xc4, 0x81, 0x3e, 0x0b, 0xc1, 0x7f, 0xbe, 0x8e, 0x98, 0x49, 0x3d,
    0x8a, 0x41, 0x94, 0xbd, 0x09, 0x0d, 0x87, 0x3e, 0x18, 0x50, 0xc8, 0xbe,
    0x9d, 0x70, 0x64, 0xbe, 0x71, 0x9c, 0x98, 0x3d, 0x39, 0x19, 0x76, 0xbd,
    0x3f, 0xe5, 0xae, 0x3d, 0xd5, 0x6b, 0x92, 0x3e, 0x9e, 0xdd, 0x23, 0x3d,
    0xfe, 0x3a, 0x1a, 0x3e, 0xc2, 0x80, 0x32, 0x3e, 0x9e, 0x24, 0xd7, 0x3d,
    0xbb, 0xd4, 0xef, 0xbd, 0x3b, 0xe6, 0x1e, 0x3e, 0xdf, 0x77, 0x06, 0xbf,
    0xbb, 0x11, 0x01, 0xbc, 0xf2, 0xe2, 0x81, 0xbd, 0x63, 0x12, 0x19, 0x3e,
    0xb7, 0x8d, 0x4d, 0xbd, 0xa1, 0x73, 0x3b, 0x3d, 0x90, 0xdb, 0xbf, 0x3d,
    0xaa, 0x62, 0xcd, 0xbc, 0xa2, 0xda, 0x97, 0xbd, 0xb8, 0x70, 0x64, 0x3e,
    0x9d, 0x83, 0x82, 0x3d, 0x8c, 0x17, 0x68, 0x3e, 0xd3, 0x6e, 0x52, 0x3d,
    0x08, 0x43, 0xc3, 0x3c, 0x7d, 0x6f, 0x32, 0xbc, 0xe2, 0x76, 0xd2, 0x3e,
    0x32, 0x9b, 0x8d, 0xbe, 0x64, 0x0e, 0xc5, 0x3d, 0x71, 0xcf, 0x89, 0x3e,
    0xcb, 0x14, 0x95, 0xbd, 0x87, 0x13, 0xbe, 0xbe, 0x11, 0x41, 0x0c, 0xbd,
    0x77, 0xc1, 0xaf, 0xb9, 0xc4, 0x3f, 0x21, 0xbe, 0x9d, 0x8c, 0xca, 0x3d,
    0x81, 0x97, 0xbc, 0x3e, 0x4f, 0x3a, 0x55, 0x3d, 0xf1, 0x72, 0xdc, 0x3e,
    0x7a, 0xbc, 0x2f, 0x3e, 0xbb, 0x35, 0xea, 0x3b, 0xb6, 0x3d, 0x2b, 0xbe,
    0x5c, 0xf9, 0x5c, 0x3e, 0x45, 0x01, 0x8f, 0x3d, 0xde, 0xab, 0xd8, 0x3d,
    0x52, 0x42, 0x74, 0x3d, 0x07, 0x68, 0xd2, 0x3d, 0xba, 0x7c, 0xd4, 0xbd,
    0xfd, 0x18, 0x2e, 0xbe, 0x29, 0x1e, 0xcb, 0x3e, 0xb3, 0x2a, 0x6a, 0xbd,
    0xe4, 0x2e, 0x99, 0xbe, 0xe9, 0x1e, 0x28, 0xbd, 0x70, 0x22, 0x62, 0x3e,
    0x2f, 0xd5, 0x0a, 0xbe, 0x5d, 0x0e, 0x19, 0x3e, 0xf5, 0x8f, 0x0f, 0xbe,
    0x91, 0xd9, 0x95, 0xbe, 0x18, 0x24, 0x2a, 0xbd, 0x48, 0xc5, 0xe6, 0x3d,
    0xcd, 0x45, 0x2a, 0xbd, 0xc7, 0xab, 0xe6, 0x3d, 0x24, 0xbb, 0x32, 0x3e,
    0xad, 0x8c, 0x7b, 0x3c, 0x36, 0xed, 0x6e, 0x3e, 0x69, 0xb7, 0x19, 0x3d,
    0x86, 0x6b, 0x27, 0x3d, 0x6a, 0x16, 0x74, 0xbe, 0xcd, 0xd0, 0x9d, 0x3e,
    0x2b, 0x78, 0x6f, 0xbe, 0x01, 0x53, 0x86, 0x3e, 0xe1, 0x37, 0x40, 0x3e,
    0x15, 0x95, 0xee, 0x3b, 0x06, 0xe8, 0x62, 0xbe, 0x83, 0x15, 0xe4, 0xbd,
    0x05, 0x90, 0xaa, 0x3b, 0xa1, 0xfb, 0x8d, 0xbd, 0xae, 0x81, 0xbc, 0xbd,
    0x2a, 0x46, 0x84, 0xbe, 0xff, 0xc6, 0xec, 0x3c, 0x3e, 0xe4, 0x5f, 0x3e,
    0x14, 0xb6, 0x5b, 0x3e, 0x3d, 0x4c, 0x49, 0x3e, 0xa0, 0x70, 0x40, 0xbd,
    0x3e, 0x21, 0x61, 0x3e, 0x1e, 0x87, 0x98, 0xbd, 0x25, 0xe0, 0x3e, 0x3e,
    0xac, 0x1d, 0x75, 0x3e, 0x4f, 0x94, 0xb4, 0x3c, 0xda, 0xd6, 0x10, 0xbe,
    0xe2, 0xe5, 0xb1, 0xbd, 0x86, 0xde, 0x80, 0x3d, 0x76, 0xb7, 0x3a, 0xbd,
    0xc8, 0xce, 0xf8, 0xbd, 0xef, 0xb9, 0x7b, 0xbe, 0x5a, 0x6d, 0x19, 0xbe,
    0x6c, 0xe3, 0x6c, 0xbc, 0xbc, 0xcd, 0x59, 0x3e, 0x55, 0x4b, 0xf8, 0xbd,
    0xf8, 0x62, 0xa3, 0xbd, 0xaf, 0x7e, 0x91, 0xbb, 0x68, 0x27, 0x08, 0x3c,
    0x63, 0x27, 0x4f, 0x3e, 0x16, 0x33, 0x12, 0x3e, 0x4a, 0x33, 0x4f, 0xbe,
    0x7e, 0x07, 0x08, 0xbe, 0x46, 0xb7, 0xb1, 0xbd, 0x4a, 0xbb, 0xd3, 0x3c,
    0x0a, 0x7c, 0x53, 0xbe, 0x0d, 0x05, 0xe0, 0x3d, 0xaf, 0xd2, 0xd6, 0x3d,
    0x98, 0x30, 0x9f, 0xbd, 0xa9, 0xea, 0xaa, 0xbb, 0x6e, 0x63, 0xa8, 0x3e,
    0x49, 0x9e, 0xc9, 0xbd, 0x2f, 0x41, 0x4d, 0xbe, 0xaa, 0xc4, 0x77, 0x3d,
    0x52, 0x02, 0x02, 0xbe, 0x16, 0x05, 0x42, 0xbe, 0x52, 0x82, 0x56, 0x3d,
    0xfd, 0xc7, 0xb5, 0xbd, 0xcb, 0x69, 0x0d, 0xbe, 0x82, 0x73, 0xc9, 0x3c,
    0x5a, 0x13, 0x40, 0x3e, 0xaf, 0x3a, 0x53, 0xbe, 0x05, 0x32, 0xc5, 0xbc,
    0xd0, 0x04, 0xa8, 0x3c, 0x90, 0xc3, 0x21, 0xbe, 0xff, 0x08, 0x04, 0x3c,
    0xcf, 0x05, 0x8e, 0xbd, 0xea, 0xfe, 0x70, 0xbe, 0x51, 0xef, 0x12, 0xbd,
    0x9f, 0x48, 0x1c, 0x3e, 0xaa, 0x98, 0x88, 0xbe, 0xdc, 0x23, 0xe2, 0x3d,
    0x9d, 0x77, 0x66, 0x3d, 0x5a, 0x3e, 0x11, 0x3e, 0xcc, 0x0c, 0x9b, 0xbe,
    0x5e, 0x4f, 0xc4, 0x3c, 0x3b, 0x89, 0x60, 0xbd, 0x60, 0x4a, 0x65, 0xbe,
    0xde, 0x85, 0x1e, 0xbe, 0x24, 0xc5, 0x10, 0x3d, 0xf4, 0xed, 0x64, 0xbb,
    0x96, 0x8a, 0x53, 0xbd, 0x87, 0x6d, 0xfc, 0x3c, 0x02, 0x80, 0xc0, 0x3d,
    0x58, 0xcd, 0x99, 0xbe, 0x6d, 0x08, 0x8d, 0xbe, 0xe3, 0x5c, 0x92, 0xbe,
    0xa0, 0x3b, 0x10, 0xbe, 0xb2, 0x8b, 0xc4, 0xbd, 0xdd, 0x6b, 0x0b, 0xbe,
    0x96, 0x3a, 0xa1, 0x3d, 0xc8, 0x84, 0x32, 0xbe, 0xed, 0xde, 0xdd, 0xbd,
    0xbb, 0x54, 0xcc, 0xbd, 0xb0, 0xfb, 0xda, 0x3d, 0x09, 0x92, 0xee, 0x3c,
    0x11, 0x5e, 0x62, 0xbd, 0x82, 0x0f, 0xbb, 0xbd, 0xb8, 0xaa, 0x63, 0x3d,
    0x5d, 0x93, 0x0d, 0x3c, 0x02, 0x5d, 0x14, 0x3e, 0x77, 0x04, 0x31, 0xbc,
    0xa7, 0xc8, 0x0d, 0xbe, 0x4d, 0xe0, 0xf0, 0x3d, 0x2a, 0x78, 0x50, 0x3e,
    0x82, 0xf9, 0x75, 0x3e, 0x4e, 0x6a, 0x0f, 0xbe, 0x27, 0x13, 0xf8, 0x3d,
    0xad, 0x11, 0x7d, 0xbd, 0x3c, 0x90, 0xdf, 0xbc, 0xd0, 0x24, 0x72, 0x3d,
    0xc7, 0x5f, 0x3f, 0x3e, 0x52, 0xd1, 0xb8, 0x3e, 0xd3, 0x72, 0xcd, 0x3d,
    0x9d, 0x12, 0xa9, 0x3d, 0xac, 0xd7, 0x8d, 0xbe, 0xa5, 0x14, 0xea, 0x3d,
    0xb1, 0xfd, 0xa6, 0xbd, 0x01, 0x6c, 0x4a, 0x3a, 0x48, 0x91, 0x85, 0x3d,
    0x95, 0x94, 0x9f, 0x3d, 0xbc, 0xb2, 0xfd, 0x3d, 0x38, 0xda, 0xea, 0x3d,
    0x70, 0x21, 0xf2, 0xbd, 0xf4, 0x18, 0x5a, 0x3d, 0x11, 0x4d, 0xd6, 0xbd,
    0x88, 0xa4, 0xb1, 0x3e, 0x16, 0x0d, 0x48, 0x3e, 0x9b, 0x6f, 0xad, 0xbd,
    0x44, 0x28, 0x6a, 0x3d, 0x2b, 0x16, 0xc6, 0xbd, 0x2d, 0xab, 0xbf, 0xbd,
    0xd6, 0xf4, 0xae, 0x3d, 0x6f, 0xfc, 0x01, 0xbe, 0xb3, 0xfc, 0x67, 0xbe,
    0x18, 0x6e, 0x44, 0x3e, 0xd9, 0xfd, 0x6d, 0x3e, 0x09, 0x7b, 0x10, 0xbe,
    0x00, 0x34, 0xae, 0x3d, 0xfb, 0xd7, 0x28, 0x3d, 0xe2, 0xb0, 0x12, 0x3e,
    0x49, 0x4d, 0xe1, 0xbd, 0x55, 0x35, 0x99, 0xbd, 0x74, 0xed, 0xc3, 0xbc,
    0x4f, 0x9a, 0x58, 0x3d, 0x74, 0xf8, 0x5f, 0xbd, 0x11, 0x22, 0xbc, 0xbc,
    0x48, 0x34, 0x0b, 0xbe, 0xad, 0x1a, 0xb0, 0xbd, 0xaf, 0xe2, 0x0f, 0xbc,
    0x27, 0xb1, 0x73, 0xbe, 0xfd, 0x43, 0xc2, 0x3d, 0x71, 0x1a, 0x0f, 0x3e,
    0x20, 0x6b, 0x37, 0xbb, 0xcd, 0x6e, 0x2f, 0xbe, 0x10, 0x92, 0xdb, 0x3d,
    0x2b, 0x21, 0xd4, 0x3d, 0xa0, 0x10, 0x5f, 0xbd, 0x45, 0x98, 0xa2, 0x3d,
    0xdc, 0x82, 0x19, 0xbd, 0xf6, 0x6d, 0xd3, 0x3d, 0x7c, 0x0c, 0xdf, 0xbd,
    0xa8, 0x69, 0x28, 0x3e, 0x26, 0x01, 0x4e, 0x3d, 0x0e, 0xd9, 0x28, 0xbd,
    0x19, 0x26, 0x52, 0xbd, 0xae, 0x89, 0xb0, 0xbe, 0x12, 0x72, 0x63, 0x3d,
    0x09, 0xd5, 0xa4, 0xbd, 0x33, 0x01, 0x0b, 0x3e, 0xe5, 0x64, 0x99, 0xbd,
    0xec, 0x1c, 0xc5, 0xbd, 0x1d, 0x94, 0x56, 0xba, 0xf8, 0xa3, 0xe5, 0x3c,
    0xf3, 0xac, 0x98, 0xbd, 0x64, 0xc7, 0x04, 0xbd, 0x77, 0xa7, 0x49, 0xbd,
    0xee, 0xe8, 0x38, 0xbe, 0xa8, 0xdf, 0xd2, 0xbd, 0x51, 0xce, 0xcb, 0xbd,
    0xd4, 0xb3, 0x2c, 0xbd, 0x68, 0xbe, 0x76, 0x3d, 0xd2, 0x08, 0x24, 0xbe,
    0xd7, 0x7b, 0x50, 0xbe, 0x42, 0x91, 0x3c, 0xbd, 0x8d, 0x7b, 0x9a, 0x3e,
    0x82, 0x24, 0x52, 0xbe, 0xaf, 0x1d, 0xe1, 0xbc, 0x68, 0xce, 0x47, 0xbe,
    0x95, 0xa4, 0xe9, 0xbd, 0xce, 0x30, 0xf1, 0xbc, 0xd7, 0xc3, 0x27, 0xbe,
    0xd4, 0x9c, 0x18, 0xbe, 0x34, 0x7c, 0x50, 0xbe, 0x66, 0x91, 0x26, 0x3e,
    0x77, 0xc1, 0x29, 0xbc, 0xda, 0x67, 0xbc, 0xbd, 0xe4, 0x11, 0xd6, 0x3d,
    0x38, 0xe3, 0x90, 0xbe, 0xf8, 0xab, 0xe8, 0x3d, 0xb9, 0x50, 0xf8, 0xbd,
    0xba, 0x0c, 0x7f, 0xbe, 0x40, 0x4b, 0xd2, 0xbe, 0xad, 0x9d, 0x8f, 0xbd,
    0x0e, 0x29, 0x80, 0xbe, 0x91, 0x44, 0xc7, 0x3d, 0x59, 0x93, 0x97, 0xbd,
    0x7c, 0x35, 0xf6, 0x3d, 0x7d, 0x64, 0x60, 0xbe, 0x7e, 0xf7, 0x1c, 0x3d,
    0x1d, 0xc3, 0xde, 0xbd, 0xbc, 0x07, 0x9c, 0x3d, 0x72, 0x46, 0x80, 0xbe,
    0x0a, 0x5b, 0x4d, 0xbe, 0x9f, 0xa1, 0x40, 0xbe, 0x81, 0x24, 0xd1, 0x3d,
    0x9f, 0x4a, 0x61, 0x3c, 0x9e, 0x70, 0xdb, 0x3d, 0x14, 0x27, 0x83, 0xbe,
    0x12, 0x9c, 0x0e, 0x3f, 0xdd, 0xeb, 0xb4, 0xbe, 0x00, 0xa1, 0x34, 0xbe,
    0xab, 0xda, 0xc0, 0xbc, 0xf4, 0x20, 0x72, 0x3d, 0xb1, 0xeb, 0x60, 0xbe,
    0x17, 0x2a, 0x37, 0xbe, 0xf0, 0xe7, 0x0e, 0x3e, 0x95, 0x76, 0x01, 0x3e,
    0x98, 0x06, 0x46, 0xbe, 0x71, 0x7c, 0x04, 0x3e, 0x70, 0xff, 0x1b, 0xbe,
    0xb7, 0x11, 0xac, 0x3c, 0xe7, 0xbc, 0xa9, 0x3c, 0xc6, 0x9c, 0x32, 0x3d,
    0x47, 0xd9, 0xd9, 0xbe, 0xf6, 0xd7, 0x70, 0x3f, 0x49, 0x75, 0x31, 0xbe,
    0x12, 0x2c, 0x53, 0xbd, 0x5c, 0xa8, 0x76, 0xbe, 0x2e, 0xf3, 0x10, 0xbc,
    0x33, 0x96, 0x04, 0xbe, 0x3f, 0x83, 0x95, 0xbd, 0xfb, 0x28, 0xc4, 0xbd,
    0xef, 0xcd, 0x65, 0x3e, 0x7b, 0x54, 0xb8, 0xbd, 0x5c, 0x7d, 0x38, 0x3d,
    0x9a, 0x7e, 0x3c, 0xbe, 0xa0, 0x7d, 0xe4, 0xbd, 0x27, 0x6f, 0xfd, 0xbd,
    0x3e, 0xe2, 0xfd, 0xbc, 0x93, 0xe6, 0x8c, 0xbe, 0xb6, 0x0e, 0xab, 0x3f,
    0x15, 0xd0, 0x8c, 0xbe, 0xf3, 0x30, 0xa2, 0x3b, 0xdd, 0x1e, 0xdf, 0xbd,
    0x9a, 0x6f, 0x25, 0x3e, 0xfc, 0x83, 0x65, 0x3d, 0xc4, 0x00, 0x06, 0xbe,
    0xa5, 0xb3, 0x74, 0xbe, 0xfc, 0x7d, 0x23, 0x3e, 0x7d, 0x92, 0x7c, 0xbe,
    0xba, 0x59, 0x94, 0xbd, 0xba, 0x7a, 0xd9, 0xbe, 0xe9, 0xf2, 0xeb, 0x3d,
    0xbe, 0xdc, 0xfb, 0xbd, 0xee, 0xc9, 0x4d, 0xbe, 0x7c, 0xd2, 0xe8, 0xbe,
    0x9a, 0x5b, 0x1e, 0x3f, 0x2a, 0xf8, 0x6e, 0xbe, 0x2e, 0x45, 0x59, 0xbe,
    0x7e, 0x39, 0x17, 0xbe, 0x27, 0xce, 0x7b, 0x3d, 0xad, 0xd5, 0x0b, 0xbd,
    0x87, 0x19, 0x63, 0xbe, 0x98, 0xac, 0x3e, 0xbe, 0xd4, 0x88, 0x9c, 0x3d,
    0x76, 0xa0, 0x8c, 0xbe, 0x59, 0x73, 0x60, 0x3d, 0x12, 0x77, 0xa0, 0xbe,
    0x44, 0x12, 0xca, 0xbd, 0x33, 0x48, 0xdd, 0xbc, 0xf9, 0x97, 0x4c, 0xbe,
    0x8f, 0xc5, 0xc9, 0xbe, 0x55, 0x08, 0x59, 0x3f, 0xd1, 0x80, 0x94, 0xbe,
    0x21, 0xbf, 0x85, 0xbe, 0x72, 0x5c, 0xad, 0x3c, 0x75, 0x1e, 0x15, 0xbd,
    0x42, 0x2f, 0xba, 0xbe, 0x11, 0x15, 0x70, 0xbe, 0x2b, 0x3c, 0x05, 0xbd,
    0x3a, 0xc9, 0xd2, 0xbd, 0x37, 0x8d, 0x11, 0xbe, 0xa4, 0xda, 0x1d, 0xbe,
    0x51, 0xd7, 0x94, 0xbe, 0xc9, 0xe1, 0x7a, 0xbd, 0xe9, 0x57, 0xc6, 0xbd,
    0x98, 0xee, 0x4f, 0xbe, 0x3a, 0xba, 0xae, 0xbe, 0x97, 0xf3, 0x36, 0x3f,
    0x0c, 0x38, 0xb6, 0xbe, 0x44, 0xf5, 0xd9, 0x3d, 0xe4, 0xe1, 0xbe, 0xbc,
    0x85, 0x1d, 0x89, 0x3d, 0xcb, 0x29, 0x7d, 0x3e, 0x94, 0xdd, 0xc4, 0x3d,
    0x3c, 0x3e, 0x8f, 0xbe, 0x54, 0x5d, 0x0c, 0x3d, 0x59, 0xab, 0x42, 0x3d,
    0xa3, 0xbe, 0x03, 0x3e, 0x6e, 0x93, 0xd6, 0xbc, 0xe7, 0x7a, 0x4e, 0x3d,
    0x10, 0xef, 0xce, 0x3c, 0xfe, 0xa5, 0x96, 0x3e, 0x7e, 0x74, 0xea, 0x3d,
    0xbd, 0xe3, 0xbe, 0xbc, 0x7f, 0x54, 0x68, 0xbc, 0x54, 0x8f, 0x99, 0xbd,
    0xfc, 0xc3, 0x4c, 0xbd, 0xbb, 0x1a, 0x94, 0x3c, 0xd8, 0xba, 0x63, 0x3e,
    0xbb, 0xa4, 0x0e, 0x3e, 0x90, 0xda, 0x2c, 0xbe, 0x98, 0xa8, 0x5f, 0xbd,
    0xdc, 0x67, 0x9f, 0x3d, 0x7c, 0x57, 0xea, 0xbd, 0x99, 0xd9, 0x7d, 0xbc,
    0xf0, 0x53, 0x66, 0xbe, 0x4a, 0x16, 0xc8, 0xbd, 0x19, 0x84, 0xc6, 0x3d,
    0x71, 0x65, 0xa4, 0x3d, 0x7e, 0x3e, 0x55, 0xbe, 0xbd, 0xcf, 0x91, 0xbb,
    0xae, 0xe1, 0x8c, 0x3d, 0xef, 0x1a, 0x2a, 0x3d, 0xe5, 0x50, 0xbd, 0xbd,
    0x9f, 0x1e, 0x3a, 0x3e, 0x5a, 0x73, 0x83, 0x3c, 0x12, 0xeb, 0xb0, 0xbe,
    0xb2, 0x6a, 0x13, 0xbe, 0xe1, 0xaa, 0xf9, 0x3c, 0x28, 0x7a, 0x8f, 0xbc,
    0x55, 0xa5, 0xd4, 0xbc, 0xfc, 0xad, 0x37, 0xbe, 0xd9, 0xe8, 0xb9, 0x3c,
    0x77, 0x56, 0x61, 0x3c, 0x41, 0xeb, 0x8b, 0xbd, 0x8a, 0x33, 0x83, 0xbe,
    0x72, 0x9c, 0xe2, 0xbc, 0xac, 0x56, 0xa4, 0x3d, 0xae, 0x19, 0x5e, 0x3c,
    0xc1, 0x34, 0x80, 0xbe, 0x60, 0x34, 0x7c, 0xba, 0xa9, 0x8f, 0x46, 0x3c,
    0xc4, 0x8b, 0xd0, 0xbd, 0x5a, 0x96, 0x20, 0xbe, 0xa7, 0x3d, 0x83, 0xbd,
    0x00, 0xd5, 0xdd, 0xbd, 0x39, 0x99, 0x81, 0xbd, 0x81, 0xf2, 0xb0, 0xbe,
    0x5a, 0x18, 0xda, 0xbd, 0xde, 0xbd, 0x43, 0xbd, 0x8e, 0x5e, 0x19, 0xbe,
    0x0d, 0xca, 0x8a, 0xbc, 0x5f, 0xba, 0x0b, 0xbc, 0x6a, 0xab, 0xd2, 0x3d,
    0xdb, 0x25, 0x8b, 0xbe, 0xd5, 0x85, 0x81, 0x3e, 0x84, 0x1d, 0x1f, 0x3e,
    0x46, 0xfa, 0xa8, 0x3d, 0xbe, 0xbe, 0x16, 0xbe, 0xbf, 0x78, 0xaa, 0xbd,
    0x89, 0x27, 0x63, 0xbe, 0xef, 0x31, 0xe3, 0x3b, 0xf0, 0xf6, 0x49, 0xbd,
    0xe4, 0x81, 0x15, 0x3e, 0x33, 0xf9, 0xd9, 0xbc, 0x20, 0x66, 0x54, 0xbe,
    0x96, 0x46, 0x09, 0xbe, 0xb0, 0x55, 0xdb, 0xbd, 0x68, 0x26, 0x61, 0x3c,
    0x52, 0xd4, 0x47, 0x3e, 0x84, 0x91, 0x4e, 0xbe, 0x13, 0x0b, 0xc5, 0x3e,
    0x76, 0xd4, 0x39, 0x3d, 0x78, 0xba, 0xde, 0x3d, 0xfa, 0x87, 0xc7, 0xbd,
    0x72, 0x15, 0x04, 0xbe, 0xad, 0x27, 0x0c, 0xbc, 0xae, 0x7a, 0x20, 0x3e,
    0xd5, 0x2c, 0x3e, 0x3c, 0x73, 0xfa, 0x60, 0x3e, 0x42, 0xab, 0x5e, 0x3d,
    0x90, 0x10, 0x9f, 0xba, 0x5f, 0xd8, 0x88, 0xbd, 0x16, 0x1c, 0x76, 0xbe,
    0xd9, 0x89, 0xf1, 0xbb, 0x6c, 0x4f, 0x12, 0x3e, 0x49, 0x5e, 0x3a, 0x39,
    0x77, 0x51, 0xf3, 0x3d, 0x2b, 0x8c, 0x28, 0x3d, 0xf1, 0xe5, 0xcc, 0xbc,
    0x54, 0x23, 0x05, 0xbe, 0x0d, 0xe0, 0x90, 0xbd, 0x74, 0x15, 0x3b, 0xbd,
    0x9e, 0xf8, 0xf9, 0x39, 0xf0, 0xb8, 0xa6, 0xbc, 0x8f, 0x5e, 0x1a, 0x3e,
    0xe3, 0x8d, 0xd3, 0xbc, 0x83, 0x8d, 0xa7, 0x3d, 0xe2, 0xa3, 0xe5, 0x3d,
    0x28, 0x19, 0x80, 0x3a, 0xae, 0xb5, 0x95, 0x3c, 0x2c, 0x3e, 0xd9, 0x3d,
    0x38, 0xf7, 0xb1, 0xbe, 0x8a, 0xbb, 0xa1, 0xbe, 0x55, 0x7e, 0xfb, 0x3d,
    0x8a, 0x1b, 0x31, 0x3e, 0xa5, 0xb7, 0x52, 0x3c, 0x92, 0x10, 0x00, 0xbe,
    0x1a, 0x76, 0x97, 0xbe, 0xa6, 0x63, 0x98, 0xbe, 0xa9, 0x73, 0xdd, 0xbd,
    0xef, 0x0b, 0x9f, 0xbe, 0x84, 0x3d, 0xed, 0xbe, 0x32, 0xf2, 0x43, 0xbd,
    0xc0, 0x79, 0xe1, 0x3d, 0x67, 0xcd, 0xb9, 0xbd, 0x53, 0xec, 0x5a, 0x3d,
    0xb2, 0x88, 0x67, 0x3e, 0x70, 0x4e, 0xf4, 0xbe, 0xa6, 0x43, 0x4d, 0xbe,
    0x94, 0x15, 0x26, 0x3e, 0xf4, 0x04, 0x07, 0x3e, 0xa0, 0x39, 0x96, 0x3d,
    0x19, 0x2d, 0xdb, 0xbd, 0x7e, 0x61, 0x2b, 0x3e, 0xd6, 0xab, 0xc0, 0x3c,
    0xc1, 0x74, 0x1a, 0xbd, 0x0a, 0xb4, 0x86, 0xbc, 0x09, 0x18, 0xea, 0xbe,
    0xf6, 0xb3, 0x22, 0x3e, 0xdb, 0x46, 0xae, 0x3d, 0x3c, 0xeb, 0xa7, 0xbe,
    0xe3, 0xe1, 0x79, 0xbe, 0x4e, 0x48, 0xac, 0x3e, 0xc8, 0x20, 0x13, 0xbf,
    0xca, 0x3e, 0x97, 0x3e, 0x8f, 0x94, 0x36, 0xbc, 0x7a, 0x60, 0x0d, 0xbc,
    0x31, 0x94, 0x9a, 0xbe, 0x21, 0x60, 0x0b, 0xbe, 0x95, 0x03, 0xe5, 0x3d,
    0x1a, 0xb2, 0xd1, 0x3c, 0x37, 0xb9, 0x4e, 0x3d, 0x7e, 0xd3, 0xad, 0xbc,
    0x18, 0x6a, 0x88, 0xbe, 0xfc, 0x4f, 0xf3, 0x3d, 0x4a, 0x3f, 0x30, 0x3d,
    0x7d, 0x21, 0xce, 0xbd, 0x73, 0xd3, 0x13, 0xbf, 0x7a, 0x30, 0x9f, 0x3e,
    0xca, 0xa9, 0x93, 0xbe, 0x4d, 0x78, 0x9e, 0xbd, 0xca, 0xce, 0x12, 0x3e,
    0x0d, 0x1e, 0x30, 0x3e, 0x46, 0x93, 0x17, 0xbe, 0x76, 0x7c, 0x1c, 0xbe,
    0x61, 0xa9, 0xc6, 0x3d, 0xc4, 0x41, 0x95, 0xbc, 0x68, 0x46, 0xbe, 0x3c,
    0xca, 0x42, 0x81, 0xbe, 0xa8, 0x8b, 0x9c, 0xbe, 0xb1, 0x48, 0x2d, 0x3e,
    0xd9, 0x50, 0xcd, 0x3b, 0x4a, 0xa3, 0xa5, 0xbe, 0x95, 0xe9, 0x73, 0x3d,
    0xf3, 0xe9, 0x2e, 0x3e, 0x1c, 0x4a, 0x9c, 0xbe, 0x90, 0x83, 0x22, 0xbf,
    0xad, 0x93, 0x61, 0x3e, 0xcb, 0xb0, 0x70, 0x3e, 0x4b, 0x69, 0x06, 0xbe,
    0xa0, 0xff, 0x89, 0xbe, 0x7a, 0xe1, 0x80, 0x3d, 0xcd, 0xc5, 0xb4, 0xbe,
    0xa4, 0x3e, 0xc9, 0x3c, 0xe2, 0x85, 0x0c, 0xbf, 0xd6, 0x73, 0x06, 0xbf,
    0x24, 0x9f, 0x84, 0xbe, 0x22, 0x05, 0x83, 0x3c, 0xe0, 0x9b, 0x84, 0xbe,
    0xdd, 0xea, 0x94, 0x3d, 0xc6, 0x81, 0x9b, 0x3e, 0x9f, 0x12, 0x18, 0xbf,
    0x98, 0x96, 0xd2, 0xbe, 0xd6, 0xec, 0x88, 0x3e, 0x3c, 0x95, 0x49, 0x3e,
    0xb0, 0x59, 0xd6, 0xbd, 0xb6, 0x08, 0x4e, 0xbe, 0x3a, 0xee, 0x71, 0xbd,
    0x05, 0x9c, 0x7c, 0xbe, 0x86, 0x08, 0x95, 0xbd, 0x2c, 0xb7, 0xe2, 0xbe,
    0xf8, 0xaf, 0xe3, 0xbe, 0x92, 0xb9, 0x82, 0xbe, 0x58, 0xb4, 0xc0, 0xbc,
    0x6b, 0x02, 0x3a, 0xbe, 0x8d, 0x63, 0xeb, 0xbd, 0x36, 0xf0, 0x17, 0x3e,
    0x6b, 0xee, 0xca, 0xbe, 0x32, 0xba, 0x10, 0x3e, 0xba, 0x4a, 0x9f, 0x3c,
    0x9a, 0x94, 0xad, 0x3c, 0x60, 0xd8, 0xac, 0x3c, 0x71, 0xbe, 0x15, 0xbd,
    0x56, 0x14, 0x23, 0x3e, 0x6d, 0xb2, 0x53, 0xbe, 0x3f, 0xfb, 0x4b, 0x3d,
    0x7c, 0xc1, 0x39, 0xbe, 0xca, 0xb0, 0xdc, 0xbd, 0x5a, 0x82, 0x8b, 0xbd,
    0xde, 0xaf, 0xb3, 0xbc, 0x2d, 0x06, 0x89, 0xbe, 0x21, 0xb7, 0xae, 0xbd,
    0x9b, 0x33, 0x14, 0xbe, 0xe0, 0x6b, 0xe7, 0xbe, 0x57, 0xe1, 0x88, 0x3b,
    0x47, 0xe6, 0x24, 0x3e, 0x42, 0x30, 0x8b, 0xbd, 0x8c, 0x7e, 0x89, 0xbd,
    0xd5, 0x82, 0x42, 0x3e, 0x69, 0x68, 0x0f, 0xbf, 0x5a, 0xa4, 0x0e, 0xbf,
    0x07, 0x48, 0x83, 0xbc, 0xcc, 0x83, 0x2f, 0x3e, 0xd0, 0x75, 0x3f, 0xbf,
    0xb1, 0x3a, 0x58, 0x3e, 0x06, 0x24, 0xf0, 0x3d, 0xa9, 0x19, 0x7c, 0xbe,
    0xff, 0x42, 0x5c, 0xbe, 0xb7, 0xc6, 0x33, 0x3d, 0xe4, 0x2f, 0x0b, 0x3e,
    0x5a, 0xb7, 0x2a, 0x3e, 0x00, 0x77, 0x7b, 0xbe, 0xef, 0x04, 0xd8, 0xbc,
    0xe3, 0x00, 0xeb, 0x3d, 0x4b, 0xa5, 0x18, 0xbe, 0x17, 0x66, 0x91, 0x3d,
    0x8f, 0x5e, 0x92, 0x3d, 0x68, 0x25, 0x4a, 0xbe, 0xf3, 0xe2, 0xd8, 0xbd,
    0x23, 0x91, 0x98, 0x3d, 0x11, 0xdb, 0xe7, 0x3e, 0xb9, 0x35, 0x63, 0x3d,
    0xb6, 0xd3, 0x3f, 0xbd, 0xeb, 0x55, 0x3c, 0x3d, 0xd8, 0x7c, 0x43, 0xbd,
    0x99, 0x95, 0x2c, 0x3e, 0x17, 0x7f, 0xf1, 0x3b, 0x02, 0xe8, 0xcb, 0x3e,
    0x74, 0x7f, 0x40, 0xbe, 0xa4, 0xe7, 0x18, 0x3c, 0x51, 0x91, 0x09, 0xbf,
    0x32, 0x9b, 0x63, 0x3e, 0xca, 0x4a, 0xda, 0xbc, 0x76, 0xaf, 0x10, 0xbe,
    0xc9, 0x80, 0x64, 0x3d, 0x3c, 0x96, 0x9a, 0x3e, 0xb8, 0x80, 0xbe, 0x3e,
    0xa4, 0x29, 0x61, 0xbe, 0x21, 0x99, 0xb9, 0xbd, 0x01, 0xe6, 0xf4, 0x3c,
    0xba, 0x80, 0x1b, 0x3d, 0x7a, 0x79, 0x0a, 0x3e, 0x49, 0x5d, 0x14, 0xbd,
    0x66, 0xce, 0x1f, 0x3e, 0xc1, 0x58, 0xfa, 0xbd, 0xe6, 0x4a, 0x41, 0xb9,
    0x5c, 0xdb, 0x80, 0xbe, 0xaf, 0x17, 0x93, 0x3e, 0x1e, 0xee, 0x95, 0xbe,
    0x1d, 0x3d, 0xb5, 0xbe, 0x06, 0x3f, 0x54, 0xbd, 0xde, 0x3e, 0xb9, 0x3d,
    0x2b, 0xa3, 0x7e, 0xbd, 0xd1, 0x97, 0x50, 0xbe, 0x24, 0x45, 0x00, 0x3d,
    0xb1, 0x0f, 0x19, 0xbc, 0xd7, 0x99, 0xfa, 0xbb, 0xc5, 0x6b, 0x05, 0x3e,
    0xd6, 0x72, 0x6e, 0xbb, 0x43, 0x0f, 0x24, 0x3e, 0xbf, 0x7e, 0xea, 0x3b,
    0xad, 0x34, 0x2a, 0xbe, 0x73, 0xac, 0x6c, 0x3d, 0x4c, 0x10, 0x1b, 0xbe,
    0xb7, 0xf8, 0x5e, 0x3c, 0x39, 0xdf, 0x72, 0xbe, 0xb4, 0xa0, 0x4f, 0xbe,
    0xf2, 0x09, 0xa6, 0xbd, 0x49, 0xe6, 0xc9, 0x3e, 0xd7, 0xc4, 0x2b, 0xbd,
    0xc4, 0xf3, 0xc0, 0xbe, 0xb4, 0x13, 0x3e, 0xbd, 0x1c, 0x53, 0x1b, 0xbe,
    0xb5, 0x3f, 0x2b, 0x3d, 0xbf, 0xcb, 0x4f, 0xbe, 0x70, 0x65, 0x4d, 0x3d,
    0xe1, 0x75, 0x9f, 0x3d, 0x25, 0x36, 0xc7, 0x3c, 0x67, 0x85, 0x42, 0x3d,
    0x73, 0x7b, 0xf1, 0xbc, 0x38, 0x30, 0x0b, 0xbe, 0x52, 0x70, 0x87, 0xbe,
    0x99, 0xf7, 0x53, 0xbe, 0xe1, 0xa4, 0x2f, 0x3d, 0xb8, 0xb3, 0x40, 0x3e,
    0x38, 0x21, 0x7f, 0x3e, 0x5a, 0x17, 0x2a, 0xbe, 0xb6, 0x30, 0xab, 0x3d,
    0xee, 0x28, 0x3f, 0x3d, 0x4f, 0x30, 0x84, 0x3e, 0x27, 0x3c, 0x19, 0x3d,
    0x79, 0x39, 0x80, 0x3c, 0x2e, 0xb3, 0x40, 0xbe, 0xf8, 0x37, 0x7a, 0xbe,
    0xfa, 0xe1, 0x7b, 0x3b, 0x03, 0x90, 0x1a, 0x3e, 0x39, 0xf4, 0x4f, 0xbe,
    0x48, 0xa7, 0x89, 0xbe, 0x0f, 0x30, 0xa9, 0xbd, 0xbb, 0xee, 0xd8, 0xbc,
    0x55, 0x8f, 0x4a, 0x3d, 0x63, 0x94, 0xfe, 0x3d, 0x5f, 0x06, 0x08, 0x3d,
    0x78, 0xaa, 0x81, 0x3d, 0x28, 0x31, 0x5c, 0xbd, 0x86, 0x66, 0x9e, 0xbd,
    0x80, 0x64, 0xf5, 0x3c, 0xaf, 0x89, 0x67, 0xbc, 0xcf, 0x04, 0xc1, 0xbc,
    0xcc, 0x95, 0x40, 0x3e, 0x68, 0xcc, 0x1b, 0xbe, 0x79, 0x40, 0xd9, 0xbd,
    0xdc, 0x52, 0x39, 0xbe, 0x60, 0x3d, 0x56, 0xbe, 0x17, 0xba, 0x15, 0x3d,
    0x25, 0x1c, 0x34, 0x3d, 0xbd, 0x8a, 0x28, 0x3e, 0x0f, 0x91, 0x38, 0xbe,
    0x72, 0x2c, 0x52, 0xbe, 0xb4, 0x79, 0x1c, 0xbe, 0xef, 0x0e, 0x2f, 0xbd,
    0x8d, 0xee, 0x07, 0x3e, 0xdf, 0x81, 0x0f, 0x3e, 0x94, 0x9c, 0x11, 0xbe,
    0xb8, 0x96, 0x70, 0x3d, 0x08, 0xda, 0x1c, 0x3e, 0x4e, 0x0a, 0xd3, 0x3c,
    0xa2, 0xc4, 0x66, 0xbe, 0x2c, 0xc4, 0xc0, 0x3d, 0x87, 0x4a, 0x6e, 0xbe,
    0x19, 0x9a, 0xc5, 0x3d, 0x57, 0x60, 0xf5, 0x3c, 0x1f, 0x78, 0x18, 0x3d,
    0x52, 0x08, 0x8f, 0xbe, 0xaa, 0xb3, 0x0c, 0x3c, 0x71, 0x4b, 0x99, 0xbd,
    0x3b, 0x20, 0x39, 0xbd, 0x58, 0x40, 0xba, 0x3d, 0x98, 0x20, 0x4f, 0xbe,
    0x53, 0x9f, 0x33, 0xbd, 0xb1, 0xf2, 0xfe, 0xbc, 0x43, 0x39, 0xd6, 0x3d,
    0x6d, 0x36, 0x26, 0xbe, 0x06, 0x49, 0x2e, 0xbe, 0xde, 0x58, 0x6d, 0xbd,
    0x0c, 0xeb, 0x1a, 0xbd, 0xa0, 0x1e, 0x54, 0xbe, 0xc6, 0x5c, 0xac, 0xbb,
    0x13, 0x08, 0x29, 0x3e, 0x5c, 0x35, 0xa5, 0xbd, 0x98, 0xc0, 0xf5, 0xbd,
    0x95, 0x5d, 0x76, 0xbe, 0x99, 0xf9, 0x4b, 0xbe, 0xd1, 0xc6, 0x85, 0x3d,
    0x8b, 0xdc, 0xca, 0xbd, 0x9e, 0x39, 0x99, 0x3d, 0x97, 0x45, 0x83, 0xbd,
    0xbe, 0x23, 0x34, 0xbe, 0x0d, 0xc9, 0x80, 0xbd, 0x59, 0xc7, 0xf5, 0xbc,
    0xfc, 0x1e, 0x4d, 0x3d, 0x91, 0xc1, 0x99, 0xbe, 0x46, 0x58, 0x61, 0xbe,
    0xee, 0xc4, 0x10, 0x3e, 0xfa, 0xf3, 0x30, 0xbe, 0x21, 0xe8, 0xb4, 0xbc,
    0xe5, 0x01, 0x9b, 0xbc, 0x09, 0x54, 0xcf, 0xbd, 0x25, 0x84, 0x56, 0xbd,
    0xa9, 0x5c, 0x2d, 0x3e, 0x71, 0xc5, 0x54, 0xbd, 0x37, 0x3e, 0x4a, 0x3d,
    0x6c, 0x3a, 0x8f, 0x3c, 0xef, 0x8b, 0xa6, 0xbd, 0xb0, 0xfb, 0x19, 0x3d,
    0x7b, 0xdd, 0xf1, 0xbc, 0xe6, 0x36, 0x0e, 0x3e, 0xdf, 0xbc, 0x1a, 0xbe,
    0xa6, 0x7c, 0x60, 0xbe, 0xb7, 0xa4, 0x58, 0xbd, 0xd5, 0x5b, 0x81, 0xbd,
    0xc2, 0x17, 0x90, 0xbc, 0xa2, 0xbf, 0x91, 0x3d, 0xa9, 0xa6, 0x23, 0xbe,
    0x57, 0x7d, 0x9c, 0x3d, 0x71, 0xef, 0x72, 0xbe, 0x57, 0xd5, 0xf9, 0xbd,
    0xc6, 0x17, 0x58, 0xba, 0xb4, 0x0a, 0xed, 0x3c, 0x66, 0xc6, 0x39, 0xbe,
    0x10, 0x66, 0x53, 0xbe, 0xe9, 0x41, 0x50, 0xbe, 0x5c, 0x53, 0xa3, 0xbc,
    0x46, 0x45, 0x40, 0xbe, 0xe1, 0xe4, 0x92, 0x3d, 0xf2, 0x76, 0xe9, 0xbc,
    0x36, 0x13, 0xe6, 0xbc, 0x1f, 0x57, 0xd3, 0xbd, 0x7b, 0xbb, 0x50, 0x3d,
    0xec, 0xf2, 0x28, 0xbe, 0xfb, 0x39, 0x16, 0xbe, 0xec, 0x06, 0x83, 0xbe,
    0xc0, 0x7c, 0xf2, 0x3d, 0x72, 0x66, 0x2a, 0xbe, 0xd8, 0x4b, 0x5f, 0xbe,
    0x38, 0xc3, 0xae, 0xbc, 0x66, 0x13, 0x88, 0xbd, 0xbf, 0x9b, 0xcb, 0xbd,
    0xd7, 0x1a, 0xfc, 0xbd, 0xc0, 0xd8, 0x0f, 0xbe, 0xa5, 0xce, 0xa3, 0x3d,
    0x45, 0xdc, 0xde, 0xbd, 0xf7, 0x50, 0xae, 0xbc, 0x9c, 0xc8, 0x26, 0xbe,
    0x30, 0x66, 0x71, 0xbb, 0xc8, 0xe1, 0x1a, 0xbe, 0x83, 0xa6, 0xa5, 0x3d,
    0xf1, 0xe5, 0xb0, 0x3e, 0x89, 0xc2, 0xcd, 0xbd, 0x4d, 0xc7, 0x72, 0x3c,
    0x93, 0x1f, 0x83, 0xbd, 0x57, 0x54, 0x7a, 0x3d, 0xb2, 0xd1, 0x9c, 0xbc,
    0xd6, 0xd9, 0x68, 0x3e, 0x52, 0xb2, 0xce, 0x3e, 0xe9, 0x44, 0x1f, 0x3d,
    0xd0, 0xf2, 0x56, 0x3e, 0x6d, 0xf2, 0xd9, 0x3d, 0x22, 0x08, 0xc3, 0x3e,
    0xce, 0x5e, 0x51, 0x3d, 0xbd, 0xaa, 0xc1, 0xbe, 0xaf, 0x7d, 0x50, 0xbe,
    0xc5, 0xeb, 0x2a, 0xbe, 0x50, 0x97, 0x28, 0xbe, 0x9e, 0x90, 0x97, 0xbe,
    0x5a, 0x31, 0x91, 0x3d, 0xff, 0x8e, 0x9c, 0x3c, 0xd0, 0x12, 0xb9, 0xbd,
    0xd1, 0x11, 0xc5, 0xbd, 0x75, 0x9f, 0x02, 0xbf, 0xef, 0x15, 0xf7, 0xbd,
    0xff, 0x0d, 0xd7, 0xbc, 0xf0, 0xcc, 0xaf, 0xbe, 0x1a, 0x58, 0x96, 0xbe,
    0x81, 0x66, 0x05, 0xbe, 0x6a, 0x5e, 0xde, 0x3c, 0x97, 0xab, 0x79, 0xbe,
    0x5a, 0xc1, 0x7d, 0xbe, 0x7e, 0xee, 0xd7, 0xbe, 0x85, 0x73, 0xfe, 0x3d,
    0xcc, 0xe2, 0x55, 0xbe, 0xe7, 0xd5, 0x98, 0xbc, 0x5d, 0xb8, 0xd8, 0x3b,
    0xfe, 0x0d, 0x57, 0x3e, 0x2e, 0x4c, 0x24, 0xbe, 0x7c, 0x72, 0xad, 0xbe,
    0x5c, 0x36, 0x80, 0xbe, 0x12, 0x77, 0xfd, 0xbd, 0x0c, 0x7b, 0xc6, 0xbe,
    0x70, 0xda, 0xc3, 0xbd, 0x0a, 0x5e, 0x24, 0xbd, 0x12, 0x5b, 0x71, 0xbe,
    0xeb, 0x4c, 0x8e, 0x3d, 0xce, 0xbf, 0xad, 0xbd, 0x04, 0x0d, 0xd6, 0xbe,
    0xb4, 0x0b, 0x8f, 0x3d, 0xca, 0x38, 0xa1, 0x3e, 0x9a, 0xe1, 0xdb, 0xbe,
    0xee, 0x1a, 0x06, 0xbc, 0x4b, 0x80, 0xb4, 0xbc, 0x32, 0x67, 0xb2, 0xbd,
    0xa6, 0x37, 0x43, 0xbe, 0xb1, 0x39, 0x9b, 0xbc, 0x9d, 0xf6, 0xa5, 0xbd,
    0xdf, 0x88, 0x88, 0x3c, 0xf6, 0x69, 0x34, 0x3d, 0x44, 0xa7, 0x75, 0xbe,
    0x61, 0x68, 0xb9, 0xbe, 0x57, 0x53, 0x3b, 0x3d, 0x4c, 0x3f, 0x2c, 0xbe,
    0x65, 0x7b, 0x6c, 0x3d, 0xb0, 0x4a, 0x56, 0xbe, 0xff, 0xd1, 0x08, 0x3f,
    0x33, 0x10, 0x23, 0xbf, 0x89, 0x9e, 0x46, 0xbe, 0x47, 0xba, 0x6f, 0x3d,
    0x05, 0xef, 0xe9, 0xbd, 0x74, 0x07, 0x60, 0x3d, 0xca, 0xe1, 0xa1, 0x3e,
    0x78, 0x17, 0x66, 0x3c, 0x52, 0x48, 0xab, 0x3e, 0x37, 0x05, 0x99, 0x3e,
    0x95, 0x54, 0x37, 0x3e, 0x91, 0x47, 0x1e, 0xbe, 0x20, 0xe5, 0x9b, 0x3c,
    0x3d, 0x75, 0xbd, 0xbd, 0x75, 0x39, 0xcf, 0x3c, 0x05, 0x4e, 0xb7, 0x3c,
    0xfd, 0x1a, 0xed, 0x3e, 0xf7, 0x67, 0xaa, 0xbe, 0x9a, 0x69, 0x33, 0xbe,
    0x92, 0x1d, 0x0e, 0x3e, 0xd2, 0xf7, 0xec, 0xbd, 0x56, 0x04, 0x1b, 0x3e,
    0xc8, 0x63, 0x62, 0x3e, 0xf9, 0x72, 0xb1, 0x3d, 0x09, 0xc5, 0xc6, 0x3d,
    0x34, 0x40, 0x95, 0x3e, 0xc9, 0xca, 0x1b, 0x3e, 0x5b, 0xfe, 0xbf, 0xbd,
    0x41, 0x1c, 0x20, 0x3e, 0x41, 0xe0, 0xa9, 0xbe, 0xef, 0x31, 0xdd, 0x3d,
    0xbc, 0x5f, 0x19, 0xbd, 0xf2, 0xdc, 0x92, 0x3e, 0x4c, 0xa8, 0x7a, 0xbd,
    0xf3, 0x96, 0xf7, 0xbc, 0x22, 0x14, 0xdf, 0x3d, 0x94, 0xb1, 0x9e, 0xbc,
    0x82, 0x96, 0x1a, 0xbe, 0xdc, 0xc9, 0x16, 0x3e, 0xd7, 0xaa, 0x87, 0xb8,
    0xd2, 0x5a, 0x7d, 0x3e, 0xf5, 0x65, 0x92, 0x3d, 0x76, 0x97, 0x06, 0x3d,
    0x5b, 0x6a, 0x82, 0x3d, 0x63, 0xd1, 0xe6, 0xbc, 0x51, 0x2c, 0x8c, 0xbe,
    0xaf, 0x4c, 0x37, 0xbc, 0x5a, 0xeb, 0x15, 0xbe, 0xb6, 0x2f, 0xf6, 0x3c,
    0x78, 0x30, 0x83, 0xbe, 0x07, 0xd6, 0x5f, 0xbe, 0xe8, 0xef, 0x1b, 0xbe,
    0x1a, 0xa7, 0x2a, 0xbd, 0x84, 0x15, 0x8b, 0xbe, 0x99, 0x54, 0x37, 0xbe,
    0x34, 0x3d, 0xa1, 0xbe, 0x13, 0xf1, 0xcd, 0x3d, 0x58, 0x64, 0x6c, 0xbd,
    0xbe, 0x73, 0xb8, 0xbd, 0xd9, 0x9d, 0xc1, 0xbe, 0xcf, 0xa4, 0xb1, 0xbd,
    0x83, 0xe0, 0x2c, 0xbe, 0x11, 0xa9, 0x94, 0xbd, 0x25, 0x88, 0x19, 0xbe,
    0x14, 0xd4, 0x06, 0xbe, 0x3a, 0x1a, 0x42, 0xbe, 0x42, 0xf5, 0xff, 0xba,
    0xed, 0x04, 0x0c, 0x3d, 0xdf, 0x08, 0xf8, 0x3d, 0xe7, 0x99, 0x8a, 0xbe,
    0x28, 0x4c, 0xd7, 0xbd, 0x2b, 0xc3, 0x4d, 0xbd, 0x82, 0x11, 0x4f, 0xbe,
    0x69, 0xec, 0x4c, 0xbe, 0xa5, 0x4e, 0xb7, 0x3d, 0x40, 0x38, 0xb9, 0xbe,
    0xd7, 0xe1, 0x35, 0x3f, 0x0e, 0x24, 0xcc, 0xbe, 0x34, 0x9a, 0x1f, 0xbe,
    0xfd, 0x85, 0x1e, 0xbe, 0x3f, 0x01, 0xbb, 0xbd, 0xe7, 0x3c, 0xb9, 0xbd,
    0xb4, 0x87, 0x2e, 0x3d, 0xed, 0x88, 0xf6, 0xbd, 0x92, 0x82, 0x60, 0x3e,
    0xa9, 0x20, 0xba, 0xbd, 0x7b, 0x0b, 0xe8, 0x3d, 0xb2, 0x34, 0xad, 0xbe,
    0xfc, 0xb0, 0xa9, 0xbd, 0xb9, 0x6c, 0xdd, 0x3d, 0x97, 0x25, 0x21, 0xbe,
    0xdb, 0x4c, 0x89, 0xbe, 0x25, 0xb9, 0x94, 0x3f, 0xb1, 0xee, 0xbe, 0xbd,
    0x11, 0x66, 0x7e, 0xbd, 0x92, 0x36, 0xf6, 0x3d, 0x67, 0x7d, 0xbd, 0xbd,
    0x3c, 0xa4, 0xb5, 0x3d, 0x94, 0x8d, 0x82, 0xbe, 0x15, 0x05, 0x37, 0xbe,
    0x6d, 0xe5, 0x38, 0x3e, 0x51, 0x32, 0x04, 0xbe, 0xa1, 0x80, 0xe0, 0x3d,
    0xf9, 0x5c, 0x78, 0xbe, 0x59, 0x5a, 0x17, 0x3e, 0xe8, 0xd8, 0x5d, 0x3b,
    0xe0, 0xe3, 0x2c, 0x3e, 0x95, 0xda, 0xb2, 0xbe, 0x1f, 0xbc, 0xab, 0x3f,
    0x21, 0xfc, 0x85, 0xbe, 0xbc, 0xda, 0x5e, 0xbe, 0x10, 0xa7, 0x57, 0x3d,
    0x73, 0x0c, 0x26, 0xbd, 0x40, 0xdb, 0xae, 0x3c, 0xfe, 0x2c, 0xc5, 0xbd,
    0x2f, 0xe6, 0x4e, 0x3e, 0xa4, 0x11, 0x87, 0x3e, 0xa6, 0x57, 0x5f, 0xbe,
    0x67, 0xba, 0x53, 0xbe, 0x73, 0xc5, 0x93, 0xbe, 0x68, 0xb1, 0x2b, 0xbe,
    0xf3, 0x8b, 0x0a, 0xbd, 0x04, 0x74, 0x61, 0xbe, 0x22, 0x65, 0x15, 0xbe,
    0xac, 0x69, 0xc1, 0x3f, 0x12, 0xb8, 0x90, 0xbd, 0x62, 0x23, 0x11, 0xbd,
    0x52, 0x00, 0xec, 0xbd, 0x8d, 0x62, 0x7e, 0xbd, 0xe2, 0xae, 0x28, 0xbe,
    0x92, 0x53, 0x5b, 0xbc, 0x23, 0x4d, 0x59, 0xbc, 0x35, 0x06, 0xb2, 0x3c,
    0xc1, 0x3d, 0x5b, 0xbc, 0xfb, 0x64, 0x0d, 0xbd, 0x6f, 0xb5, 0x1e, 0xbe,
    0x7f, 0xbd, 0x2e, 0x3c, 0xf2, 0x35, 0x80, 0xbe, 0xb5, 0x87, 0x5a, 0xbd,
    0x4f, 0x7e, 0xb6, 0xbe, 0x87, 0x38, 0x8d, 0x3f, 0x80, 0xeb, 0x04, 0xbb,
    0xf4, 0x2d, 0x63, 0xbd, 0xe3, 0xcf, 0x8f, 0xbe, 0xe4, 0x6d, 0x2e, 0xbe,
    0xd4, 0x48, 0x8f, 0xbe, 0xb3, 0xab, 0x8e, 0xbe, 0xf0, 0xc4, 0xac, 0x3c,
    0x58, 0xd9, 0xf6, 0xbd, 0xf4, 0x51, 0x9f, 0xbe, 0x0e, 0x3e, 0xd1, 0xbd,
    0x45, 0xe3, 0xca, 0xbe, 0xa8, 0x18, 0x1d, 0xbe, 0x8c, 0xe0, 0xa1, 0xbe,
    0x0a, 0xcd, 0x13, 0xbe, 0xa4, 0x7b, 0xdf, 0xbe, 0xe1, 0x35, 0x77, 0x3f,
    0x96, 0x71, 0x11, 0xbf, 0x7b, 0x8c, 0x45, 0xbd, 0xa3, 0xc9, 0x21, 0xbd,
    0x8a, 0x63, 0x98, 0xbd, 0xd4, 0xb7, 0xd3, 0xbe, 0x18, 0x3c, 0x7a, 0xbe,
    0x05, 0xee, 0x00, 0xbd, 0x32, 0x46, 0xe6, 0xbe, 0x9e, 0xac, 0x31, 0x3d,
    0x4a, 0xd7, 0x70, 0xbe, 0x57, 0x89, 0xce, 0xbd, 0x41, 0x96, 0x42, 0x3e,
    0x77, 0x5f, 0x9a, 0xbc, 0xad, 0xc4, 0xab, 0xbe, 0x32, 0x44, 0x64, 0xbe,
    0x3f, 0x4c, 0x2f, 0xbe, 0x14, 0xe7, 0x4a, 0xbd, 0x63, 0xa4, 0x61, 0x3d,
    0x72, 0x4e, 0xb1, 0x3c, 0x45, 0xf9, 0x06, 0xbe, 0x71, 0xdb, 0x2d, 0xbe,
    0xf2, 0x5b, 0xa3, 0xbd, 0xe9, 0x8e, 0x11, 0xbe, 0xc1, 0x19, 0xd5, 0xbe,
    0x5e, 0xe8, 0x28, 0xbe, 0x10, 0xec, 0x42, 0xbe, 0xcf, 0xbb, 0x80, 0x3d,
    0x1a, 0xe7, 0x77, 0x3c, 0x9c, 0x66, 0xaa, 0xbe, 0x22, 0xac, 0x1c, 0xbf,
    0x33, 0xa3, 0x8b, 0xbe, 0xb4, 0x47, 0x16, 0x3d, 0xb3, 0x3e, 0x00, 0xbe,
    0xd2, 0xb1, 0xe4, 0xbd, 0xd1, 0x2b, 0x19, 0xbe, 0x55, 0xc3, 0x5b, 0xbe,
    0x12, 0xcb, 0x83, 0x3d, 0x49, 0xb0, 0x51, 0xbe, 0x27, 0x2c, 0x8f, 0xbe,
    0xd5, 0x49, 0x8e, 0xbd, 0xaa, 0x35, 0x81, 0xbe, 0x23, 0x5d, 0xdb, 0xbe,
    0x2a, 0x24, 0x94, 0xbd, 0xf4, 0xb9, 0xc7, 0xbd, 0xe1, 0x38, 0xf2, 0xbe,
    0x8f, 0x32, 0x0f, 0xbf, 0xbe, 0x80, 0xee, 0x3b, 0x58, 0x91, 0xe1, 0xbd,
    0xdb, 0xe1, 0x0f, 0xbe, 0xa7, 0x35, 0x95, 0xbe, 0x8a, 0x0b, 0x99, 0xbe,
    0x7c, 0x89, 0x5d, 0x3d, 0x01, 0x49, 0x58, 0x37, 0xd3, 0x7a, 0xb1, 0xbc,
    0xe4, 0xe7, 0x68, 0xbe, 0x3b, 0x0f, 0xed, 0xb9, 0xd6, 0x6e, 0x37, 0xbe,
    0x55, 0xd3, 0x99, 0xbe, 0x20, 0x30, 0x81, 0xbe, 0x16, 0xfc, 0x0c, 0xbf,
    0x16, 0xcd, 0x49, 0xbd, 0x1f, 0xbb, 0x85, 0x3e, 0xef, 0x34, 0x64, 0x3d,
    0xaf, 0xb8, 0x7c, 0xbe, 0x2e, 0x93, 0x83, 0xbd, 0x43, 0xd5, 0x97, 0xbd,
    0xfb, 0x8a, 0x4d, 0xbe, 0x21, 0x30, 0xce, 0x3e, 0xb0, 0xb7, 0x8e, 0xbe,
    0x0a, 0x49, 0x76, 0xbe, 0x48, 0x27, 0x10, 0xbd, 0x87, 0xc5, 0xa3, 0x3d,
    0x70, 0x91, 0x1b, 0xbe, 0x64, 0x73, 0x67, 0x3e, 0xb8, 0xfa, 0x01, 0xbe,
    0x8a, 0x85, 0x98, 0x3e, 0x2d, 0x7f, 0x2b, 0x3e, 0x3f, 0x92, 0xb4, 0x3e,
    0x34, 0x92, 0x12, 0x3c, 0x77, 0x62, 0x34, 0x3e, 0x94, 0xec, 0xbb, 0xbc,
    0xcb, 0x22, 0x23, 0xbc, 0xac, 0x3c, 0x67, 0xbd, 0x3b, 0x7e, 0xab, 0x3e,
    0xa7, 0xb6, 0xcd, 0xbd, 0x54, 0x35, 0xf4, 0xbd, 0x08, 0x56, 0x82, 0xbd,
    0xfb, 0xc8, 0x9f, 0xbc, 0x79, 0xeb, 0x15, 0x3e, 0x04, 0xe9, 0x53, 0x3e,
    0x69, 0x82, 0xcb, 0xbd, 0x20, 0x28, 0x12, 0x3e, 0x1e, 0xfe, 0x86, 0x3e,
    0xdd, 0xc3, 0x8e, 0x3e, 0x98, 0x26, 0xb0, 0x3d, 0xb0, 0x50, 0x2e, 0x3d,
    0x2e, 0xbf, 0xda, 0x3c, 0x4b, 0xe3, 0xe7, 0x3d, 0x3a, 0xd7, 0x14, 0x3e,
    0x34, 0x47, 0x26, 0x3e, 0xc5, 0xa5, 0x0f, 0x3d, 0x53, 0xda, 0x01, 0xbe,
    0x42, 0xc1, 0x39, 0xbe, 0xc2, 0xc7, 0x11, 0x3e, 0xe8, 0xe2, 0x69, 0x3d,
    0xed, 0xea, 0x8e, 0xbd, 0xfc, 0xe1, 0xe6, 0xbd, 0x0e, 0x31, 0x6e, 0x3e,
    0xf1, 0xdc, 0xc8, 0xbc, 0x8d, 0x54, 0x71, 0x3e, 0x2a, 0xbe, 0xae, 0x3d,
    0x28, 0x21, 0xf9, 0x3d, 0xaa, 0xeb, 0xf7, 0x3d, 0xce, 0x10, 0x8d, 0xbe,
    0xd9, 0x5b, 0xf8, 0xbd, 0xe8, 0x32, 0xb2, 0x3e, 0xa5, 0x9d, 0xa8, 0xbe,
    0x4e, 0x9b, 0x07, 0xbf, 0xc4, 0xce, 0x1a, 0x3e, 0xf6, 0xa9, 0x0d, 0x3e,
    0xfe, 0xa2, 0x24, 0xbe, 0xca, 0x6a, 0x00, 0xbe, 0xb0, 0x9c, 0x56, 0x3c,
    0xd1, 0xd3, 0xa0, 0xbc, 0x7e, 0xa2, 0x09, 0x3d, 0x21, 0xf1, 0x62, 0xbe,
    0x78, 0xaa, 0xfc, 0xbc, 0xd6, 0xec, 0x4f, 0x3e, 0xb6, 0x63, 0x0e, 0xbd,
    0xad, 0x3b, 0x2b, 0xbe, 0xb1, 0x93, 0x82, 0xbc, 0xd7, 0xe9, 0xab, 0x3e,
    0xec, 0x0c, 0xaa, 0xbe, 0x5b, 0x77, 0xba, 0xbe, 0x03, 0xfb, 0x08, 0x3e,
    0x25, 0x40, 0x64, 0x3e, 0x23, 0x82, 0x4a, 0xbe, 0x61, 0x93, 0x3f, 0x3e,
    0x3a, 0x92, 0x74, 0x3d, 0x9f, 0xa4, 0xc0, 0x3e, 0x4e, 0x7f, 0x25, 0x3e,
    0x4e, 0xe4, 0x03, 0xbe, 0x64, 0x65, 0xd5, 0x3c, 0x11, 0x47, 0x21, 0xbd,
    0xa3, 0x57, 0xf6, 0xbe, 0x77, 0xb4, 0x63, 0xbd, 0x4b, 0xdb, 0xf4, 0xbd,
    0xf1, 0x1e, 0x65, 0x3d, 0xcd, 0xb4, 0x87, 0x3b, 0x3f, 0x3d, 0x13, 0x3d,
    0x60, 0x4d, 0x07, 0x3e, 0xb3, 0x58, 0x2e, 0x3e, 0x00, 0x7e, 0xad, 0xbe,
    0x76, 0xa1, 0xac, 0x3a, 0x4e, 0x51, 0x9f, 0x3d, 0x04, 0xb7, 0xc5, 0x3e,
    0xf5, 0xce, 0xa3, 0x3d, 0x93, 0x61, 0xc6, 0x3c, 0xd1, 0x03, 0x8e, 0x3d,
    0xe1, 0x16, 0x89, 0xbe, 0x48, 0x9c, 0xef, 0xbe, 0x47, 0xae, 0x70, 0x3b,
    0x88, 0xc8, 0x19, 0x3d, 0xd4, 0xc8, 0xc6, 0x3b, 0xc5, 0x99, 0xe4, 0x3c,
    0x13, 0x40, 0x1f, 0xbe, 0x6d, 0x7d, 0x54, 0x3e, 0x39, 0x96, 0x3b, 0x3e,
    0xb1, 0x5c, 0x60, 0xbe, 0xbb, 0xe5, 0xba, 0x3e, 0xad, 0xc5, 0x98, 0x3d,
    0x8e, 0xb9, 0xab, 0x3e, 0x5a, 0x64, 0x0f, 0x3d, 0xe6, 0xf0, 0xc8, 0x3d,
    0x14, 0x74, 0xf9, 0x3d, 0xab, 0x74, 0xa9, 0xbe, 0x9a, 0x8b, 0xd7, 0xbe,
    0x54, 0x9d, 0x25, 0xbe, 0x56, 0xec, 0x0a, 0x3d, 0x6b, 0xe9, 0x8d, 0xbd,
    0xe9, 0xb3, 0x05, 0xbe, 0x59, 0x67, 0x1e, 0xbe, 0xc5, 0xe1, 0x8a, 0x3e,
    0xb1, 0x1c, 0x28, 0x3e, 0x1f, 0xea, 0xa3, 0xbe, 0x0a, 0x7b, 0x25, 0xbe,
    0x2d, 0x36, 0xb0, 0x3d, 0xdc, 0xf2, 0x23, 0x3e, 0x92, 0xa6, 0x30, 0x3d,
    0xaa, 0x16, 0x82, 0x3c, 0x85, 0xb0, 0x2a, 0x3e, 0xaf, 0xd3, 0xbd, 0xbe,
    0x46, 0x4f, 0xe0, 0xbe, 0x22, 0x63, 0x19, 0xbf, 0x34, 0x64, 0x07, 0xbe,
    0xe8, 0xf6, 0x51, 0xbe, 0x0e, 0xf0, 0xc4, 0xbc, 0xbd, 0x96, 0x8c, 0xbe,
    0xfa, 0x55, 0x30, 0xbd, 0x93, 0xec, 0x32, 0x3e, 0xe6, 0x20, 0x7d, 0xbe,
    0xd3, 0xa5, 0x3a, 0x3d, 0x1f, 0x40, 0x6b, 0x3b, 0x8c, 0x21, 0x1f, 0x3e,
    0xf1, 0x28, 0xe5, 0x3d, 0xbf, 0x48, 0x69, 0xbc, 0xd5, 0xee, 0xd9, 0xbc,
    0x4e, 0x3f, 0xbe, 0xbd, 0x43, 0xf1, 0xa3, 0xbe, 0x5d, 0x98, 0x17, 0xbf,
    0x82, 0x0b, 0x34, 0xbe, 0xa6, 0x88, 0x91, 0xbe, 0x0d, 0xc1, 0xb7, 0xbd,
    0x33, 0x1e, 0xcc, 0xbb, 0xa6, 0x35, 0xe6, 0x3d, 0x38, 0x5f, 0x26, 0x3e,
    0x85, 0xe8, 0x9e, 0xbe, 0x0d, 0xed, 0x9a, 0xbc, 0x48, 0x9a, 0x68, 0x3c,
    0x1a, 0xc9, 0x9a, 0xbe, 0x33, 0x2b, 0xbb, 0xbd, 0xdd, 0xc4, 0xa6, 0xbd,
    0x4a, 0x5e, 0x12, 0xbd, 0xdd, 0xa5, 0x4e, 0xbe, 0x1e, 0x46, 0xad, 0xbe,
    0xcb, 0xb2, 0x36, 0xbe, 0xb8, 0x8f, 0x86, 0xbe, 0xfe, 0x2c, 0x1a, 0x3e,
    0xdd, 0x60, 0xf1, 0xbd, 0x7d, 0x0a, 0xab, 0xbe, 0xcd, 0xf4, 0xe4, 0xba,
    0x87, 0x84, 0xad, 0x3e, 0x31, 0x75, 0xe3, 0xbd, 0xfa, 0x78, 0x64, 0xbe,
    0x5e, 0x80, 0xca, 0xbe, 0x33, 0xb6, 0x21, 0xbe, 0x17, 0x5a, 0x4b, 0xbe,
    0x28, 0x5a, 0xb4, 0x3e, 0xec, 0x0a, 0x76, 0x3e, 0x54, 0xfb, 0x87, 0xbc,
    0x5b, 0xa8, 0xce, 0xbd, 0xf7, 0x1b, 0x55, 0x3c, 0x0d, 0x1e, 0x28, 0x3e,
    0x40, 0x7b, 0xd5, 0x3d, 0x7e, 0x51, 0x2e, 0xbd, 0xb8, 0x32, 0xbf, 0xbd,
    0x96, 0x93, 0x6e, 0xbe, 0x69, 0x9e, 0x2a, 0x3e, 0x4f, 0x09, 0xf9, 0x3d,
    0x6e, 0xcb, 0x92, 0x3d, 0xa6, 0xe5, 0xd7, 0xbe, 0x56, 0x70, 0x1f, 0xbe,
    0x37, 0xf9, 0x1b, 0x3d, 0xb0, 0xd7, 0xaf, 0x3e, 0xee, 0x65, 0x36, 0x3e,
    0x4c, 0x56, 0x85, 0x3f, 0x6f, 0x83, 0x9f, 0x3d, 0xb3, 0xb7, 0x10, 0xbe,
    0x6e, 0xc4, 0x72, 0x3d, 0xc4, 0x6c, 0x5d, 0xbb, 0x8e, 0xe3, 0x76, 0x3e,
    0xb1, 0x98, 0x46, 0xbe, 0x3a, 0xa0, 0x04, 0xbe, 0xb9, 0xe1, 0x27, 0x3d,
    0x0c, 0x44, 0xec, 0x3d, 0xf6, 0x68, 0x2e, 0xbe, 0x95, 0x96, 0xcf, 0xbe,
    0x12, 0xba, 0x5d, 0xbd, 0x23, 0x75, 0x70, 0x3d, 0xcb, 0x94, 0xc2, 0x3e,
    0x3b, 0x5b, 0xae, 0x3d, 0xab, 0xc2, 0xa5, 0x3f, 0xa3, 0xde, 0xe1, 0x3d,
    0x09, 0x13, 0x3f, 0xbe, 0x2a, 0x2f, 0x12, 0x3e, 0x71, 0x29, 0x9c, 0x3d,
    0xd1, 0x5b, 0x13, 0xbf, 0x0c, 0x01, 0x91, 0xbe, 0xad, 0xb7, 0x3a, 0xbe,
    0x8c, 0xb5, 0xf7, 0xbd, 0x50, 0x8b, 0xc4, 0x3c, 0x34, 0x1d, 0x8c, 0xbc,
    0x61, 0xc3, 0xae, 0xbe, 0xa6, 0x4c, 0xea, 0x3c, 0x7e, 0x9c, 0xff, 0x3c,
    0x36, 0x71, 0x3d, 0x3e, 0x8a, 0x13, 0xc7, 0xbb, 0x85, 0xaf, 0x75, 0x3f,
    0xe4, 0x62, 0x69, 0x3d, 0x8f, 0x54, 0xa9, 0xbd, 0x21, 0xf0, 0xb6, 0x3d,
    0x7b, 0x05, 0x23, 0x3e, 0xfc, 0x7b, 0xe5, 0xbd, 0x65, 0xa4, 0x1f, 0x3e,
    0x12, 0x7e, 0xe7, 0x3c, 0x34, 0x52, 0x3a, 0xbe, 0x7d, 0x66, 0x89, 0x3d,
    0x9c, 0x8b, 0xd1, 0xbd, 0x03, 0xc0, 0xae, 0xbd, 0x60, 0xc0, 0xda, 0x3d,
    0xb4, 0x02, 0x27, 0x3d, 0xc2, 0x5b, 0x64, 0xbe, 0x40, 0x0f, 0x3d, 0xbe,
    0xdd, 0xd1, 0x4c, 0x3f, 0x98, 0x72, 0xa1, 0x3d, 0xff, 0x4e, 0x16, 0x3d,
    0x5b, 0x7c, 0xc4, 0x3b, 0xe9, 0x02, 0x26, 0x3e, 0x0e, 0x7c, 0x48, 0x3d,
    0x72, 0x6b, 0x17, 0x3e, 0xfa, 0xf1, 0x11, 0xbd, 0x3e, 0xd9, 0x78, 0xbe,
    0x11, 0x56, 0xe5, 0xbd, 0x7f, 0x9c, 0xe5, 0xbb, 0xde, 0x30, 0x14, 0xbc,
    0x7f, 0x90, 0x12, 0x3e, 0x4e, 0x5c, 0xde, 0xbc, 0x59, 0x50, 0xa4, 0xbe,
    0x71, 0x2f, 0xa0, 0xbe, 0x9a, 0xab, 0x8d, 0x3f, 0x2a, 0x20, 0xac, 0x3c,
    0x3d, 0x0d, 0xa9, 0xbc, 0x7c, 0x43, 0x1b, 0xbd, 0x4e, 0xae, 0x97, 0xbc,
    0x39, 0xd9, 0x03, 0xbe, 0x6f, 0xdd, 0x7b, 0xbe, 0xf8, 0x96, 0x94, 0xbe,
    0x6c, 0x46, 0x81, 0xbe, 0xe6, 0x8c, 0x54, 0xbd, 0x4c, 0x2e, 0xb5, 0x3d,
    0x90, 0xc9, 0x0b, 0xbf, 0x0b, 0xac, 0x42, 0xbe, 0x98, 0x4c, 0x84, 0x3c,
    0x36, 0x9e, 0x2a, 0xbe, 0x25, 0xce, 0xc2, 0xbe, 0x4f, 0xea, 0x24, 0x3f,
    0x4c, 0x04, 0x7c, 0xbc, 0xf6, 0xe4, 0x3d, 0x3c, 0xa2, 0x6d, 0x22, 0xbf,
    0xd3, 0xeb, 0x73, 0xbe, 0xc6, 0x72, 0x57, 0x3e, 0xf9, 0xc5, 0xaa, 0x3e,
    0x5c, 0x1a, 0x1d, 0xbe, 0x94, 0x19, 0x84, 0xbe, 0x98, 0x10, 0x8c, 0xbe,
    0x64, 0x97, 0xdd, 0xbd, 0x53, 0x21, 0xcd, 0xbb, 0x88, 0x5e, 0x08, 0xbe,
    0xde, 0x15, 0xaa, 0xbe, 0x29, 0x67, 0x97, 0x3c, 0x85, 0x2b, 0x04, 0xbe,
    0xa1, 0xb7, 0xc7, 0x3c, 0xa3, 0x31, 0x89, 0xbe, 0x14, 0xf2, 0xeb, 0x3d,
    0xc5, 0x66, 0xf9, 0xbd, 0xc5, 0x0b, 0x9e, 0xbe, 0xde, 0x26, 0x95, 0x3e,
    0x11, 0x1c, 0x24, 0x3e, 0xc9, 0x45, 0xab, 0xbd, 0x6d, 0xdd, 0x65, 0xbe,
    0xca, 0x4b, 0xc5, 0x3d, 0xe2, 0xec, 0xb8, 0x3d, 0xbe, 0x0e, 0x0b, 0xbd,
    0xbd, 0x48, 0x8a, 0xbd, 0x8f, 0x01, 0x9f, 0xbe, 0xca, 0xc0, 0x88, 0x3d,
    0xfd, 0xa7, 0xd0, 0xbb, 0x19, 0xef, 0x5f, 0xbe, 0x2c, 0x51, 0x12, 0xbe,
    0x1d, 0x9a, 0x67, 0x3e, 0x37, 0x94, 0xf9, 0xbe, 0x4b, 0x1f, 0xc5, 0x3c,
    0xb4, 0xc9, 0x21, 0x3e, 0x45, 0x26, 0x0f, 0x3e, 0x96, 0xdf, 0x7d, 0xbd,
    0x3f, 0x48, 0x4a, 0xbb, 0xc8, 0x79, 0xe9, 0x3d, 0xcf, 0x02, 0xc2, 0x3d,
    0x9a, 0xb4, 0x92, 0x3d, 0x43, 0x93, 0xe0, 0xbe, 0x65, 0x10, 0x72, 0xbe,
    0x55, 0x96, 0x99, 0xbd, 0x62, 0x77, 0x46, 0x3c, 0x29, 0xe9, 0x8b, 0xbe,
    0x28, 0x97, 0xd1, 0xbe, 0x42, 0x28, 0x4b, 0x3e, 0xb2, 0xd4, 0x85, 0xbe,
    0xd5, 0x4a, 0x8f, 0xbd, 0x56, 0x03, 0x62, 0x3e, 0xef, 0xbf, 0x8c, 0x3d,
    0x8a, 0x76, 0xc4, 0x3b, 0xb7, 0xbf, 0x05, 0xbe, 0xfa, 0x3e, 0xa4, 0x3d,
    0xab, 0x4f, 0x86, 0xbd, 0x34, 0x5f, 0x8f, 0xba, 0xad, 0xe2, 0x2b, 0xbe,
    0x4f, 0x68, 0x87, 0xbe, 0x8f, 0x8d, 0x77, 0x3d, 0xd5, 0xa6, 0xab, 0x3d,
    0x6a, 0x8a, 0x13, 0xbe, 0x0a, 0x88, 0xa9, 0xbb, 0xa3, 0xb7, 0x54, 0x3e,
    0xa0, 0x62, 0x85, 0xbd, 0x3a, 0x26, 0xf7, 0xbd, 0x2b, 0x23, 0x97, 0x3e,
    0xac, 0x82, 0x31, 0x3e, 0xf0, 0xb3, 0x9c, 0xbd, 0x7b, 0x57, 0x12, 0xbe,
    0x21, 0x39, 0xb9, 0x3d, 0xb7, 0x99, 0xa9, 0xbe, 0xea, 0x8f, 0x59, 0xbd,
    0xa9, 0x71, 0x36, 0xbd, 0x02, 0xcd, 0x0d, 0xbe, 0x9a, 0xf8, 0xb0, 0xbe,
    0xd4, 0x50, 0x69, 0xbb, 0xf5, 0xee, 0xeb, 0xbe, 0x67, 0xb9, 0x15, 0x3e,
    0x67, 0xcc, 0x6a, 0x3d, 0x0a, 0xc0, 0x20, 0xbe, 0x45, 0x06, 0x7c, 0xbd,
    0x87, 0x0d, 0x7e, 0x3e, 0xbe, 0xa5, 0x20, 0x3e, 0x24, 0x5d, 0x4f, 0xbe,
    0xf1, 0x47, 0x74, 0xbd, 0x79, 0xa2, 0x5a, 0x3d, 0x6d, 0x32, 0x16, 0xbe,
    0xae, 0xc6, 0x0d, 0x3d, 0xe1, 0x43, 0x7a, 0xbd, 0xed, 0x50, 0xae, 0xbd,
    0x80, 0xaf, 0x3e, 0x3c, 0x79, 0x2b, 0x89, 0x39, 0x9c, 0x1d, 0x84, 0xbe,
    0x63, 0xa0, 0x2c, 0xbe, 0x50, 0x4c, 0xd4, 0x3d, 0x7f, 0xf8, 0x7e, 0xbe,
    0xff, 0x1c, 0x40, 0xbe, 0xed, 0x46, 0x89, 0x3d, 0x2f, 0x68, 0x0e, 0x3d,
    0x32, 0x4f, 0x78, 0xbd, 0x6c, 0x5c, 0x2e, 0xbd, 0x78, 0x8c, 0x00, 0x3d,
    0xe9, 0x39, 0x1d, 0xbc, 0xe6, 0xcc, 0x50, 0x3c, 0x11, 0xc7, 0x96, 0x3c,
    0x64, 0xa3, 0x24, 0xbe, 0x71, 0x5b, 0x13, 0x3b, 0xcd, 0xb6, 0x37, 0x3d,
    0x60, 0xc5, 0x6a, 0xbe, 0x75, 0xb5, 0xde, 0xbd, 0x1e, 0x0b, 0xc7, 0xbd,
    0xfb, 0x91, 0xaf, 0xbd, 0x98, 0x9a, 0x89, 0xbd, 0x51, 0x1a, 0xa3, 0x3e,
    0x1a, 0xed, 0xce, 0x3d, 0x29, 0xfa, 0x73, 0xbe, 0x6c, 0xad, 0x72, 0xbd,
    0xb3, 0xc8, 0xcb, 0x3d, 0xdb, 0xed, 0x98, 0xbe, 0x77, 0xdd, 0xbf, 0xbe,
    0xe9, 0x7e, 0xd2, 0xbd, 0x94, 0x24, 0xc6, 0xbd, 0xc6, 0x04, 0x12, 0x3e,
    0x5b, 0x4f, 0x46, 0x3c, 0x55, 0x9e, 0x88, 0xbe, 0x5c, 0x33, 0x2d, 0x3e,
    0xd1, 0xbd, 0x05, 0xbe, 0x8c, 0x0e, 0xca, 0x3d, 0x15, 0xbd, 0x95, 0x3d,
    0xa7, 0x80, 0xa4, 0xbe, 0x55, 0xbe, 0xe9, 0xbe, 0xfd, 0xa1, 0x3b, 0x3e,
    0x7f, 0xd1, 0xb2, 0xbd, 0xf3, 0x18, 0x6d, 0xbe, 0x2c, 0x31, 0x42, 0xbe,
    0x88, 0xd3, 0xfd, 0xbe, 0x32, 0x5f, 0xc2, 0xbd, 0x90, 0x49, 0x7b, 0x3c,
    0x69, 0x50, 0x3e, 0xbf, 0x00, 0x70, 0xa1, 0xbe, 0x73, 0x95, 0x34, 0x3f,
    0xb3, 0x42, 0x81, 0xbd, 0x0b, 0x46, 0xe1, 0xbd, 0x69, 0xef, 0xcb, 0xbc,
    0xd2, 0xc1, 0xd5, 0x3d, 0x09, 0xa9, 0xd4, 0xbe, 0x4e, 0x0b, 0xdf, 0xbd,
    0xe6, 0xe2, 0xd8, 0xbd, 0x93, 0xe1, 0x38, 0x3b, 0xf6, 0x08, 0xf9, 0xbc,
    0xc5, 0x7f, 0x64, 0xbe, 0xf4, 0x1f, 0x0b, 0xbf, 0x16, 0x2d, 0x5b, 0xbe,
    0xf7, 0x78, 0x0f, 0xbe, 0xb3, 0x3d, 0x63, 0xbe, 0x32, 0x29, 0x0a, 0xbd,
    0xb4, 0xcf, 0x36, 0x3f, 0x97, 0xb1, 0xbb, 0xbd, 0xc5, 0x20, 0x1e, 0xbe,
    0x7b, 0x17, 0xf5, 0xbc, 0x10, 0x29, 0x70, 0x3e, 0xac, 0x60, 0xbe, 0xbe,
    0x0f, 0x1b, 0xa3, 0xbe, 0x08, 0x2b, 0x05, 0x3e, 0x73, 0xec, 0x13, 0xbe,
    0x34, 0x42, 0x7a, 0xbd, 0xf4, 0x9f, 0x89, 0x3e, 0x4b, 0x8c, 0xfa, 0xbe,
    0xfc, 0xf3, 0x62, 0x3e, 0xca, 0xc4, 0x05, 0xbe, 0x48, 0xd7, 0x4d, 0xbe,
    0x91, 0x5b, 0x76, 0x3c, 0xdf, 0xa9, 0xec, 0x3e, 0x62, 0x72, 0xa9, 0x3b,
    0x61, 0x96, 0x99, 0x3a, 0xc6, 0x6a, 0xee, 0xbd, 0x89, 0x34, 0x3f, 0xbd,
    0x6b, 0x08, 0x22, 0xbe, 0x38, 0x55, 0x98, 0xbe, 0x6c, 0x73, 0xd1, 0x3d,
    0xe1, 0x9a, 0xaf, 0xbe, 0xf6, 0x10, 0xa3, 0xbd, 0x9c, 0xc3, 0x22, 0xbe,
    0xc1, 0xf1, 0x07, 0xbf, 0x2c, 0x9e, 0x8b, 0x3c, 0xbe, 0xfb, 0xd0, 0xbd,
    0x76, 0xef, 0x78, 0xbe, 0x64, 0x3c, 0xd9, 0xbd, 0x86, 0x54, 0xa3, 0x3e,
    0x23, 0x9d, 0xa1, 0xbd, 0x08, 0x66, 0x01, 0x3e, 0x79, 0x2d, 0x38, 0xbe,
    0xf2, 0x07, 0x54, 0xbe, 0x9f, 0x1f, 0x52, 0x3e, 0xf8, 0x1a, 0x8c, 0x3d,
    0xd5, 0x4d, 0x5b, 0xbe, 0x0e, 0x0c, 0xa5, 0x3e, 0x2b, 0x1e, 0xd4, 0xbd,
    0x87, 0x3e, 0x89, 0xbd, 0xd9, 0x32, 0x8b, 0xbe, 0x12, 0x76, 0x56, 0xbb,
    0x8c, 0x46, 0x44, 0xbe, 0xe0, 0xeb, 0xdb, 0xbc, 0x17, 0x62, 0x90, 0xbe,
    0xc1, 0xc0, 0xdc, 0x3e, 0xa8, 0x16, 0x1f, 0xbe, 0xc9, 0xbd, 0x70, 0x3d,
    0x0c, 0xf7, 0x85, 0xbc, 0x39, 0x85, 0x81, 0xbd, 0x89, 0x3a, 0xbc, 0x3d,
    0x4a, 0x23, 0x8a, 0xbd, 0x32, 0x6a, 0xe4, 0xbd, 0xb1, 0x11, 0x29, 0x3e,
    0x75, 0x75, 0xde, 0xbd, 0x82, 0x77, 0x8b, 0xbe, 0xf6, 0x44, 0x47, 0xbe,
    0xcd, 0x7a, 0x18, 0xbe, 0xee, 0x04, 0x5d, 0xbb, 0xe5, 0xa9, 0xa8, 0x3d,
    0xcb, 0x7b, 0x2e, 0x3e, 0xdd, 0xe1, 0x37, 0x3e, 0xcc, 0xda, 0x2f, 0xbd,
    0x46, 0xfe, 0xff, 0xff, 0x10, 0x00, 0x00, 0x00, 0x05, 0x00, 0x00, 0x00,
    0x14, 0x00, 0x00, 0x00, 0x2c, 0x00, 0x00, 0x00, 0x02, 0x00, 0x00, 0x00,
    0x10, 0x00, 0x00, 0x00, 0x70, 0x00, 0x00, 0x00, 0x17, 0x00, 0x00, 0x00,
    0x73, 0x65, 0x71, 0x75, 0x65, 0x6e, 0x74, 0x69, 0x61, 0x6c, 0x2f, 0x64,
    0x65, 0x6e, 0x73, 0x65, 0x2f, 0x4d, 0x61, 0x74, 0x4d, 0x75, 0x6c, 0x00,
    0x34, 0xfe, 0xff, 0xff, 0x2a, 0xff, 0xff, 0xff, 0x04, 0x00, 0x00, 0x00,
    0x08, 0x00, 0x00, 0x00, 0xff, 0xff, 0xff, 0xff, 0x70, 0x00, 0x00, 0x00,
    0x00, 0x00, 0x0e, 0x00, 0x18, 0x00, 0x08, 0x00, 0x07, 0x00, 0x0c, 0x00,
    0x10, 0x00, 0x14, 0x00, 0x0e, 0x00, 0x00, 0x00, 0x00, 0x00, 0x00, 0x02,
    0x10, 0x00, 0x00, 0x00, 0x04, 0x00, 0x00, 0x00, 0x10, 0x00, 0x00, 0x00,
    0x2c, 0x00, 0x00, 0x00, 0x01, 0x00, 0x00, 0x00, 0x02, 0x00, 0x00, 0x00,
    0x18, 0x00, 0x00, 0x00, 0x73, 0x65, 0x71, 0x75, 0x65, 0x6e, 0x74, 0x69,
    0x61, 0x6c, 0x2f, 0x66, 0x6c, 0x61, 0x74, 0x74, 0x65, 0x6e, 0x2f, 0x43,
    0x6f, 0x6e, 0x73, 0x74, 0x00, 0x00, 0x00, 0x00, 0x9c, 0xfe, 0xff, 0xff,
    0x92, 0xff, 0xff, 0xff, 0x04, 0x00, 0x00, 0x00, 0x10, 0x00, 0x00, 0x00,
    0x7c, 0xe4, 0x15, 0xc0, 0x9f, 0xbc, 0x96, 0xc0, 0x1b, 0xda, 0xad, 0xbe,
    0xdc, 0x21, 0x60, 0x40, 0x0a, 0xff, 0xff, 0xff, 0x10, 0x00, 0x00, 0x00,
    0x03, 0x00, 0x00, 0x00, 0x10, 0x00, 0x00, 0x00, 0x3c, 0x00, 0x00, 0x00,
    0x01, 0x00, 0x00, 0x00, 0x04, 0x00, 0x00, 0x00, 0x29, 0x00, 0x00, 0x00,
    0x73, 0x65, 0x71, 0x75, 0x65, 0x6e, 0x74, 0x69, 0x61, 0x6c, 0x2f, 0x64,
    0x65, 0x6e, 0x73, 0x65, 0x5f, 0x31, 0x2f, 0x42, 0x69, 0x61, 0x73, 0x41,
    0x64, 0x64, 0x2f, 0x52, 0x65, 0x61, 0x64, 0x56, 0x61, 0x72, 0x69, 0x61,
    0x62, 0x6c, 0x65, 0x4f, 0x70, 0x00, 0x00, 0x00, 0x60, 0xff, 0xff, 0xff,
    0x00, 0x00, 0x06, 0x00, 0x08, 0x00, 0x04, 0x00, 0x06, 0x00, 0x00, 0x00,
    0x04, 0x00, 0x00, 0x00, 0x40, 0x00, 0x00, 0x00, 0xfd, 0xad, 0xf9, 0xbe,
    0x9e, 0xec, 0x4e, 0xbf, 0xc6, 0xb3, 0x01, 0xbf, 0x16, 0x86, 0x24, 0xbe,
    0x06, 0x7a, 0x9f, 0x3f, 0xa2, 0x6d, 0xa7, 0xbf, 0xab, 0xa1, 0xbe, 0xbf,
    0x15, 0xe2, 0xa8, 0x3f, 0x84, 0x1d, 0xc9, 0xbe, 0xdc, 0xc1, 0xed, 0xbf,
    0xda, 0x85, 0xff, 0x3f, 0xa6, 0xa6, 0x28, 0x3f, 0x4e, 0xf9, 0xd8, 0x3f,
    0xc1, 0x86, 0x79, 0xbd, 0x9e, 0x7e, 0x4d, 0xc0, 0xeb, 0x31, 0xa2, 0x3f,
    0xae, 0xff, 0xff, 0xff, 0x10, 0x00, 0x00, 0x00, 0x02, 0x00, 0x00, 0x00,
    0x10, 0x00, 0x00, 0x00, 0x3c, 0x00, 0x00, 0x00, 0x01, 0x00, 0x00, 0x00,
    0x10, 0x00, 0x00, 0x00, 0x27, 0x00, 0x00, 0x00, 0x73, 0x65, 0x71, 0x75,
    0x65, 0x6e, 0x74, 0x69, 0x61, 0x6c, 0x2f, 0x64, 0x65, 0x6e, 0x73, 0x65,
    0x2f, 0x42, 0x69, 0x61, 0x73, 0x41, 0x64, 0x64, 0x2f, 0x52, 0x65, 0x61,
    0x64, 0x56, 0x61, 0x72, 0x69, 0x61, 0x62, 0x6c, 0x65, 0x4f, 0x70, 0x00,
    0x04, 0x00, 0x06, 0x00, 0x04, 0x00, 0x00, 0x00, 0x00, 0x00, 0x0e, 0x00,
    0x14, 0x00, 0x04, 0x00, 0x00, 0x00, 0x08, 0x00, 0x0c, 0x00, 0x10, 0x00,
    0x0e, 0x00, 0x00, 0x00, 0x10, 0x00, 0x00, 0x00, 0x01, 0x00, 0x00, 0x00,
    0x1c, 0x00, 0x00, 0x00, 0x2c, 0x00, 0x00, 0x00, 0x04, 0x00, 0x00, 0x00,
    0x01, 0x00, 0x00, 0x00, 0x40, 0x00, 0x00, 0x00, 0x03, 0x00, 0x00, 0x00,
    0x01, 0x00, 0x00, 0x00, 0x0c, 0x00, 0x00, 0x00, 0x63, 0x6f, 0x6e, 0x76,
    0x32, 0x64, 0x5f, 0x69, 0x6e, 0x70, 0x75, 0x74, 0x00, 0x00, 0x00, 0x00,
    0xfc, 0xff, 0xff, 0xff, 0x04, 0x00, 0x04, 0x00, 0x04, 0x00, 0x00, 0x00
};

unsigned int model_tflite_len = 12384;// Fill the int in `src/model.cc` here