#include "magic_wand_model_data.h"

// We need to keep the data array aligned on some architectures.
#ifdef __has_attribute
#define HAVE_ATTRIBUTE(x) __has_attribute(x)
#else
#define HAVE_ATTRIBUTE(x) 0
#endif
#if HAVE_ATTRIBUTE(aligned) || (defined(__GNUC__) && !defined(__clang__))
#define DATA_ALIGN_ATTRIBUTE __attribute__((aligned(4)))
#else
#define DATA_ALIGN_ATTRIBUTE
#endif

const unsigned char g_magic_wand_model_data[] DATA_ALIGN_ATTRIBUTE =  {
      0x08, 0x00, 0x00, 0x00, 0x54, 0x46, 0x4c, 0x33, 0x62, 0xff, 0xff, 0xff,
  0x03, 0x00, 0x00, 0x00, 0x10, 0x00, 0x00, 0x00, 0x24, 0x00, 0x00, 0x00,
  0x78, 0x00, 0x00, 0x00, 0x24, 0x00, 0x00, 0x00, 0x05, 0x00, 0x00, 0x00,
  0x78, 0x05, 0x00, 0x00, 0xb0, 0x04, 0x00, 0x00, 0xe0, 0x02, 0x00, 0x00,
  0x60, 0x02, 0x00, 0x00, 0x54, 0x01, 0x00, 0x00, 0x01, 0x00, 0x00, 0x00,
  0x78, 0x00, 0x00, 0x00, 0x13, 0x00, 0x00, 0x00, 0xd4, 0x2f, 0x00, 0x00,
  0xd0, 0x2f, 0x00, 0x00, 0xdc, 0x2e, 0x00, 0x00, 0x68, 0x2e, 0x00, 0x00,
  0xfc, 0x2d, 0x00, 0x00, 0xac, 0x11, 0x00, 0x00, 0x98, 0x10, 0x00, 0x00,
  0xbc, 0x0e, 0x00, 0x00, 0x60, 0x06, 0x00, 0x00, 0xfc, 0x05, 0x00, 0x00,
  0x78, 0x05, 0x00, 0x00, 0xa8, 0x2f, 0x00, 0x00, 0xa4, 0x2f, 0x00, 0x00,
  0xa0, 0x2f, 0x00, 0x00, 0x9c, 0x2f, 0x00, 0x00, 0x98, 0x2f, 0x00, 0x00,
  0x94, 0x2f, 0x00, 0x00, 0x90, 0x2f, 0x00, 0x00, 0x8c, 0x2f, 0x00, 0x00,
  0x0f, 0x00, 0x00, 0x00, 0x4d, 0x4c, 0x49, 0x52, 0x20, 0x43, 0x6f, 0x6e,
  0x76, 0x65, 0x72, 0x74, 0x65, 0x64, 0x2e, 0x00, 0x00, 0x00, 0x0e, 0x00,
  0x18, 0x00, 0x04, 0x00, 0x08, 0x00, 0x0c, 0x00, 0x10, 0x00, 0x14, 0x00,
  0x0e, 0x00, 0x00, 0x00, 0x14, 0x00, 0x00, 0x00, 0x5c, 0x00, 0x00, 0x00,
  0x60, 0x00, 0x00, 0x00, 0x64, 0x00, 0x00, 0x00, 0x84, 0x00, 0x00, 0x00,
  0x12, 0x00, 0x00, 0x00, 0x04, 0x2f, 0x00, 0x00, 0xa0, 0x2e, 0x00, 0x00,
  0xf8, 0x2d, 0x00, 0x00, 0x98, 0x2d, 0x00, 0x00, 0x30, 0x2d, 0x00, 0x00,
  0xdc, 0x10, 0x00, 0x00, 0xc0, 0x0f, 0x00, 0x00, 0xe4, 0x0d, 0x00, 0x00,
  0xa0, 0x05, 0x00, 0x00, 0x3c, 0x05, 0x00, 0x00, 0xb0, 0x04, 0x00, 0x00,
  0xe8, 0x03, 0x00, 0x00, 0x38, 0x03, 0x00, 0x00, 0xa4, 0x02, 0x00, 0x00,
  0x10, 0x02, 0x00, 0x00, 0x90, 0x01, 0x00, 0x00, 0xfc, 0x00, 0x00, 0x00,
  0x80, 0x00, 0x00, 0x00, 0x01, 0x00, 0x00, 0x00, 0x00, 0x00, 0x00, 0x00,
  0x01, 0x00, 0x00, 0x00, 0x11, 0x00, 0x00, 0x00, 0x08, 0x00, 0x00, 0x00,
  0x1c, 0x04, 0x00, 0x00, 0x58, 0x03, 0x00, 0x00, 0xc8, 0x02, 0x00, 0x00,
  0x24, 0x02, 0x00, 0x00, 0xac, 0x01, 0x00, 0x00, 0x10, 0x01, 0x00, 0x00,
  0x94, 0x00, 0x00, 0x00, 0x10, 0x00, 0x00, 0x00, 0x04, 0x00, 0x00, 0x00,
  0x6d, 0x61, 0x69, 0x6e, 0x00, 0x00, 0x00, 0x00, 0x8e, 0xff, 0xff, 0xff,
  0x00, 0x00, 0x00, 0x09, 0x04, 0x00, 0x00, 0x00, 0x1c, 0x00, 0x00, 0x00,
  0x10, 0x00, 0x00, 0x00, 0x04, 0x00, 0x00, 0x00, 0x4e, 0xd2, 0xff, 0xff,
  0x00, 0x00, 0x80, 0x3f, 0x01, 0x00, 0x00, 0x00, 0x11, 0x00, 0x00, 0x00,
  0x01, 0x00, 0x00, 0x00, 0x10, 0x00, 0x00, 0x00, 0xf6, 0xfb, 0xff, 0xff,
  0x00, 0x00, 0x00, 0x19, 0x01, 0x00, 0x00, 0x00, 0xce, 0xd1, 0xff, 0xff,
  0x10, 0x00, 0x00, 0x00, 0x12, 0x00, 0x00, 0x00, 0x14, 0x00, 0x00, 0x00,
  0x20, 0x00, 0x00, 0x00, 0x02, 0x00, 0x00, 0x00, 0x01, 0x00, 0x00, 0x00,
  0x03, 0x00, 0x00, 0x00, 0x08, 0x00, 0x00, 0x00, 0x49, 0x64, 0x65, 0x6e,
  0x74, 0x69, 0x74, 0x79, 0x00, 0x00, 0x00, 0x00, 0x08, 0xd2, 0xff, 0xff,
  0x00, 0x00, 0x0e, 0x00, 0x18, 0x00, 0x08, 0x00, 0x0c, 0x00, 0x10, 0x00,
  0x07, 0x00, 0x14, 0x00, 0x0e, 0x00, 0x00, 0x00, 0x00, 0x00, 0x00, 0x08,
  0x03, 0x00, 0x00, 0x00, 0x18, 0x00, 0x00, 0x00, 0x0c, 0x00, 0x00, 0x00,
  0x04, 0x00, 0x00, 0x00, 0xdc, 0xd1, 0xff, 0xff, 0x01, 0x00, 0x00, 0x00,
  0x10, 0x00, 0x00, 0x00, 0x03, 0x00, 0x00, 0x00, 0x0f, 0x00, 0x00, 0x00,
  0x05, 0x00, 0x00, 0x00, 0x02, 0x00, 0x00, 0x00, 0x46, 0xd2, 0xff, 0xff,
  0x10, 0x00, 0x00, 0x00, 0x11, 0x00, 0x00, 0x00, 0x14, 0x00, 0x00, 0x00,
  0x30, 0x00, 0x00, 0x00, 0x02, 0x00, 0x00, 0x00, 0x01, 0x00, 0x00, 0x00,
  0x03, 0x00, 0x00, 0x00, 0x1a, 0x00, 0x00, 0x00, 0x73, 0x65, 0x71, 0x75,
  0x65, 0x6e, 0x74, 0x69, 0x61, 0x6c, 0x2f, 0x64, 0x65, 0x6e, 0x73, 0x65,
  0x5f, 0x31, 0x2f, 0x42, 0x69, 0x61, 0x73, 0x41, 0x64, 0x64, 0x00, 0x00,
  0x38, 0xd2, 0xff, 0xff, 0xd6, 0xfd, 0xff, 0xff, 0x00, 0x00, 0x00, 0x08,
  0x03, 0x00, 0x00, 0x00, 0x24, 0x00, 0x00, 0x00, 0x18, 0x00, 0x00, 0x00,
  0x0c, 0x00, 0x00, 0x00, 0x00, 0x00, 0x06, 0x00, 0x08, 0x00, 0x07, 0x00,
  0x06, 0x00, 0x00, 0x00, 0x00, 0x00, 0x00, 0x01, 0x01, 0x00, 0x00, 0x00,
  0x0f, 0x00, 0x00, 0x00, 0x03, 0x00, 0x00, 0x00, 0x0e, 0x00, 0x00, 0x00,
  0x04, 0x00, 0x00, 0x00, 0x01, 0x00, 0x00, 0x00, 0xfe, 0xfc, 0xff, 0xff,
  0x00, 0x00, 0x00, 0x09, 0x01, 0x00, 0x00, 0x00, 0xd6, 0xd2, 0xff, 0xff,
  0x10, 0x00, 0x00, 0x00, 0x10, 0x00, 0x00, 0x00, 0x14, 0x00, 0x00, 0x00,
  0x2c, 0x00, 0x00, 0x00, 0x02, 0x00, 0x00, 0x00, 0x01, 0x00, 0x00, 0x00,
  0x10, 0x00, 0x00, 0x00, 0x15, 0x00, 0x00, 0x00, 0x73, 0x65, 0x71, 0x75,
  0x65, 0x6e, 0x74, 0x69, 0x61, 0x6c, 0x2f, 0x64, 0x65, 0x6e, 0x73, 0x65,
  0x2f, 0x52, 0x65, 0x6c, 0x75, 0x00, 0x00, 0x00, 0x1c, 0xd3, 0xff, 0xff,
  0x00, 0x00, 0x0a, 0x00, 0x10, 0x00, 0x04, 0x00, 0x08, 0x00, 0x0c, 0x00,
  0x0a, 0x00, 0x00, 0x00, 0x02, 0x00, 0x00, 0x00, 0x10, 0x00, 0x00, 0x00,
  0x04, 0x00, 0x00, 0x00, 0x01, 0x00, 0x00, 0x00, 0x0e, 0x00, 0x00, 0x00,
  0x02, 0x00, 0x00, 0x00, 0x0d, 0x00, 0x00, 0x00, 0x03, 0x00, 0x00, 0x00,
  0x7a, 0xfd, 0xff, 0xff, 0x00, 0x00, 0x00, 0x16, 0x01, 0x00, 0x00, 0x00,
  0x52, 0xd3, 0xff, 0xff, 0x10, 0x00, 0x00, 0x00, 0x0f, 0x00, 0x00, 0x00,
  0x14, 0x00, 0x00, 0x00, 0x30, 0x00, 0x00, 0x00, 0x02, 0x00, 0x00, 0x00,
  0x01, 0x00, 0x00, 0x00, 0x70, 0x00, 0x00, 0x00, 0x1a, 0x00, 0x00, 0x00,
  0x73, 0x65, 0x71, 0x75, 0x65, 0x6e, 0x74, 0x69, 0x61, 0x6c, 0x2f, 0x66,
  0x6c, 0x61, 0x74, 0x74, 0x65, 0x6e, 0x2f, 0x52, 0x65, 0x73, 0x68, 0x61,
  0x70, 0x65, 0x00, 0x00, 0x44, 0xd3, 0xff, 0xff, 0xe2, 0xfe, 0xff, 0xff,
  0x00, 0x00, 0x00, 0x05, 0x01, 0x00, 0x00, 0x00, 0x38, 0x00, 0x00, 0x00,
  0x2c, 0x00, 0x00, 0x00, 0x14, 0x00, 0x00, 0x00, 0x00, 0x00, 0x0e, 0x00,
  0x14, 0x00, 0x00, 0x00, 0x10, 0x00, 0x0c, 0x00, 0x08, 0x00, 0x04, 0x00,
  0x0e, 0x00, 0x00, 0x00, 0x03, 0x00, 0x00, 0x00, 0x01, 0x00, 0x00, 0x00,
  0x03, 0x00, 0x00, 0x00, 0x01, 0x00, 0x00, 0x00, 0x01, 0x00, 0x00, 0x00,
  0x0d, 0x00, 0x00, 0x00, 0x01, 0x00, 0x00, 0x00, 0x0c, 0x00, 0x00, 0x00,
  0xe2, 0xd3, 0xff, 0xff, 0x10, 0x00, 0x00, 0x00, 0x0e, 0x00, 0x00, 0x00,
  0x1c, 0x00, 0x00, 0x00, 0x40, 0x00, 0x00, 0x00, 0x04, 0x00, 0x00, 0x00,
  0x01, 0x00, 0x00, 0x00, 0x07, 0x00, 0x00, 0x00, 0x01, 0x00, 0x00, 0x00,
  0x10, 0x00, 0x00, 0x00, 0x22, 0x00, 0x00, 0x00, 0x73, 0x65, 0x71, 0x75,
  0x65, 0x6e, 0x74, 0x69, 0x61, 0x6c, 0x2f, 0x6d, 0x61, 0x78, 0x5f, 0x70,
  0x6f, 0x6f, 0x6c, 0x69, 0x6e, 0x67, 0x32, 0x64, 0x5f, 0x31, 0x2f, 0x4d,
  0x61, 0x78, 0x50, 0x6f, 0x6f, 0x6c, 0x00, 0x00, 0xe4, 0xd3, 0xff, 0xff,
  0xc2, 0xfe, 0xff, 0xff, 0x00, 0x00, 0x00, 0x01, 0x24, 0x00, 0x00, 0x00,
  0x18, 0x00, 0x00, 0x00, 0x04, 0x00, 0x00, 0x00, 0xb4, 0xfe, 0xff, 0xff,
  0x01, 0x00, 0x00, 0x00, 0x01, 0x00, 0x00, 0x00, 0x00, 0x00, 0x00, 0x01,
  0x01, 0x00, 0x00, 0x00, 0x0c, 0x00, 0x00, 0x00, 0x03, 0x00, 0x00, 0x00,
  0x0b, 0x00, 0x00, 0x00, 0x07, 0x00, 0x00, 0x00, 0x09, 0x00, 0x00, 0x00,
  0x72, 0xd4, 0xff, 0xff, 0x10, 0x00, 0x00, 0x00, 0x0d, 0x00, 0x00, 0x00,
  0x1c, 0x00, 0x00, 0x00, 0x2c, 0x00, 0x00, 0x00, 0x04, 0x00, 0x00, 0x00,
  0x01, 0x00, 0x00, 0x00, 0x15, 0x00, 0x00, 0x00, 0x01, 0x00, 0x00, 0x00,
  0x10, 0x00, 0x00, 0x00, 0x0c, 0x00, 0x00, 0x00, 0x74, 0x66, 0x6c, 0x2e,
  0x63, 0x6f, 0x6e, 0x76, 0x5f, 0x32, 0x64, 0x31, 0x00, 0x00, 0x00, 0x00,
  0xb8, 0xd4, 0xff, 0xff, 0x00, 0x00, 0x0e, 0x00, 0x1a, 0x00, 0x08, 0x00,
  0x0c, 0x00, 0x10, 0x00, 0x07, 0x00, 0x14, 0x00, 0x0e, 0x00, 0x00, 0x00,
  0x00, 0x00, 0x00, 0x05, 0x01, 0x00, 0x00, 0x00, 0x3c, 0x00, 0x00, 0x00,
  0x30, 0x00, 0x00, 0x00, 0x14, 0x00, 0x00, 0x00, 0x00, 0x00, 0x0e, 0x00,
  0x18, 0x00, 0x17, 0x00, 0x10, 0x00, 0x0c, 0x00, 0x08, 0x00, 0x04, 0x00,
  0x0e, 0x00, 0x00, 0x00, 0x03, 0x00, 0x00, 0x00, 0x03, 0x00, 0x00, 0x00,
  0x03, 0x00, 0x00, 0x00, 0x03, 0x00, 0x00, 0x00, 0x00, 0x00, 0x00, 0x01,
  0x01, 0x00, 0x00, 0x00, 0x0b, 0x00, 0x00, 0x00, 0x01, 0x00, 0x00, 0x00,
  0x0a, 0x00, 0x00, 0x00, 0x46, 0xff, 0xff, 0xff, 0x00, 0x00, 0x00, 0x11,
  0x01, 0x00, 0x00, 0x00, 0x1e, 0xd5, 0xff, 0xff, 0x10, 0x00, 0x00, 0x00,
  0x0c, 0x00, 0x00, 0x00, 0x1c, 0x00, 0x00, 0x00, 0x40, 0x00, 0x00, 0x00,
  0x04, 0x00, 0x00, 0x00, 0x01, 0x00, 0x00, 0x00, 0x15, 0x00, 0x00, 0x00,
  0x01, 0x00, 0x00, 0x00, 0x08, 0x00, 0x00, 0x00, 0x20, 0x00, 0x00, 0x00,
  0x73, 0x65, 0x71, 0x75, 0x65, 0x6e, 0x74, 0x69, 0x61, 0x6c, 0x2f, 0x6d,
  0x61, 0x78, 0x5f, 0x70, 0x6f, 0x6f, 0x6c, 0x69, 0x6e, 0x67, 0x32, 0x64,
  0x2f, 0x4d, 0x61, 0x78, 0x50, 0x6f, 0x6f, 0x6c, 0x00, 0x00, 0x00, 0x00,
  0x78, 0xd5, 0xff, 0xff, 0x00, 0x00, 0x0e, 0x00, 0x14, 0x00, 0x00, 0x00,
  0x08, 0x00, 0x0c, 0x00, 0x07, 0x00, 0x10, 0x00, 0x0e, 0x00, 0x00, 0x00,
  0x00, 0x00, 0x00, 0x01, 0x30, 0x00, 0x00, 0x00, 0x24, 0x00, 0x00, 0x00,
  0x10, 0x00, 0x00, 0x00, 0x0c, 0x00, 0x10, 0x00, 0x00, 0x00, 0x04, 0x00,
  0x08, 0x00, 0x0f, 0x00, 0x0c, 0x00, 0x00, 0x00, 0x01, 0x00, 0x00, 0x00,
  0x01, 0x00, 0x00, 0x00, 0x00, 0x00, 0x00, 0x01, 0x01, 0x00, 0x00, 0x00,
  0x0a, 0x00, 0x00, 0x00, 0x03, 0x00, 0x00, 0x00, 0x00, 0x00, 0x00, 0x00,
  0x06, 0x00, 0x00, 0x00, 0x08, 0x00, 0x00, 0x00, 0x00, 0x00, 0x0a, 0x00,
  0x0c, 0x00, 0x07, 0x00, 0x00, 0x00, 0x08, 0x00, 0x0a, 0x00, 0x00, 0x00,
  0x00, 0x00, 0x00, 0x03, 0x01, 0x00, 0x00, 0x00, 0xe2, 0xd5, 0xff, 0xff,
  0x10, 0x00, 0x00, 0x00, 0x0b, 0x00, 0x00, 0x00, 0x1c, 0x00, 0x00, 0x00,
  0x28, 0x00, 0x00, 0x00, 0x04, 0x00, 0x00, 0x00, 0x01, 0x00, 0x00, 0x00,
  0x40, 0x00, 0x00, 0x00, 0x03, 0x00, 0x00, 0x00, 0x08, 0x00, 0x00, 0x00,
  0x0b, 0x00, 0x00, 0x00, 0x74, 0x66, 0x6c, 0x2e, 0x63, 0x6f, 0x6e, 0x76,
  0x5f, 0x32, 0x64, 0x00, 0xcc, 0xd5, 0xff, 0xff, 0xc2, 0xd6, 0xff, 0xff,
  0x04, 0x00, 0x00, 0x00, 0x40, 0x00, 0x00, 0x00, 0xc9, 0x57, 0x1f, 0xbf,
  0x18, 0x7d, 0xb1, 0x3d, 0x71, 0x43, 0xec, 0x40, 0x5d, 0x3e, 0x9d, 0xbf,
  0xdc, 0xd9, 0x8a, 0xbe, 0x47, 0x7b, 0x8f, 0xbf, 0xda, 0x11, 0xb8, 0xbc,
  0xa1, 0x6f, 0xda, 0x3e, 0x76, 0x17, 0x99, 0xbe, 0xa9, 0x6b, 0x71, 0x3f,
  0x4c, 0xcf, 0x24, 0xbf, 0x3a, 0xec, 0x12, 0xc0, 0x4e, 0x2c, 0xbb, 0xbf,
  0xef, 0xc0, 0xb1, 0xbf, 0xfe, 0xe2, 0x7c, 0x3e, 0x64, 0x32, 0x40, 0x3d,
  0x6a, 0xd6, 0xff, 0xff, 0x10, 0x00, 0x00, 0x00, 0x0a, 0x00, 0x00, 0x00,
  0x10, 0x00, 0x00, 0x00, 0x20, 0x00, 0x00, 0x00, 0x01, 0x00, 0x00, 0x00,
  0x10, 0x00, 0x00, 0x00, 0x0d, 0x00, 0x00, 0x00, 0x73, 0x74, 0x64, 0x2e,
  0x63, 0x6f, 0x6e, 0x73, 0x74, 0x61, 0x6e, 0x74, 0x31, 0x00, 0x00, 0x00,
  0x4c, 0xd6, 0xff, 0xff, 0x42, 0xd7, 0xff, 0xff, 0x04, 0x00, 0x00, 0x00,
  0x20, 0x00, 0x00, 0x00, 0x2b, 0x6e, 0xb2, 0xbf, 0xc2, 0x3b, 0x24, 0xbd,
  0xd7, 0xa0, 0xea, 0xbf, 0x3f, 0xad, 0x4a, 0xc0, 0x6d, 0xb4, 0x1d, 0xc0,
  0xf3, 0x91, 0x22, 0xc0, 0x74, 0x04, 0x21, 0xbf, 0x5b, 0x98, 0xbf, 0xbf,
  0xca, 0xd6, 0xff, 0xff, 0x10, 0x00, 0x00, 0x00, 0x09, 0x00, 0x00, 0x00,
  0x10, 0x00, 0x00, 0x00, 0x20, 0x00, 0x00, 0x00, 0x01, 0x00, 0x00, 0x00,
  0x08, 0x00, 0x00, 0x00, 0x0c, 0x00, 0x00, 0x00, 0x73, 0x74, 0x64, 0x2e,
  0x63, 0x6f, 0x6e, 0x73, 0x74, 0x61, 0x6e, 0x74, 0x00, 0x00, 0x00, 0x00,
  0xac, 0xd6, 0xff, 0xff, 0xa2, 0xd7, 0xff, 0xff, 0x04, 0x00, 0x00, 0x00,
  0x00, 0x08, 0x00, 0x00, 0x61, 0xf2, 0x92, 0xbe, 0xef, 0x22, 0x3e, 0x3d,
  0x66, 0xd3, 0xdc, 0xbd, 0xf0, 0x8b, 0x7a, 0x3e, 0x1d, 0x72, 0x6a, 0x3e,
  0x7b, 0xc3, 0x9a, 0xbe, 0x0d, 0x6e, 0x5a, 0xbe, 0xa4, 0x32, 0x07, 0xbe,
  0x60, 0xfc, 0x5d, 0xbe, 0x5b, 0xd5, 0x6d, 0x3d, 0x30, 0xd9, 0x14, 0x3f,
  0x86, 0xa6, 0x33, 0xbe, 0xd9, 0xd9, 0xbe, 0x3e, 0xc9, 0xc9, 0xf5, 0x3e,
  0x28, 0x7b, 0x00, 0xbf, 0xfa, 0x7b, 0x76, 0xbe, 0x51, 0xc2, 0x1c, 0xbe,
  0xd8, 0x5d, 0xd4, 0x3c, 0x49, 0x91, 0x87, 0x3c, 0xe7, 0xc7, 0x8a, 0x3e,
  0x5e, 0xb0, 0x0d, 0x3d, 0x4c, 0x6f, 0x66, 0x3d, 0xde, 0x8b, 0x01, 0xbf,
  0x53, 0xc1, 0xd3, 0xbd, 0x82, 0xaa, 0x52, 0xbe, 0x7b, 0x70, 0xd7, 0xbc,
  0x49, 0x96, 0x1a, 0x3e, 0xe0, 0xe9, 0x82, 0x3e, 0xc0, 0xa7, 0x83, 0xbd,
  0xd3, 0x36, 0x1a, 0x3e, 0x67, 0x16, 0x1a, 0xbe, 0x38, 0xb3, 0x21, 0xbe,
  0xd0, 0x0b, 0xed, 0xbc, 0xa3, 0xc2, 0xa4, 0x3c, 0xe6, 0xe3, 0xb9, 0xbe,
  0x04, 0xf3, 0x90, 0xbc, 0xc3, 0xd2, 0x54, 0xbe, 0x18, 0xb7, 0x04, 0x3f,
  0x5b, 0xb7, 0xbe, 0xbc, 0xfd, 0x65, 0x2b, 0x3d, 0xa9, 0x47, 0xea, 0xbc,
  0x62, 0xcd, 0xc1, 0xbd, 0x94, 0x6c, 0xbf, 0xbe, 0xe7, 0xa7, 0x64, 0x3c,
  0xe5, 0xe8, 0x44, 0xbe, 0x49, 0xf0, 0xa1, 0x3e, 0xeb, 0xbc, 0x2d, 0xbd,
  0xb1, 0x52, 0x0e, 0x3d, 0x8c, 0xe3, 0xa7, 0x3d, 0xc2, 0x5b, 0x4b, 0xbf,
  0x8a, 0x3e, 0x43, 0x3d, 0x91, 0xc7, 0xee, 0x3e, 0x28, 0x18, 0xcc, 0x3d,
  0x66, 0x1b, 0xbc, 0xbc, 0x68, 0x2b, 0x9e, 0xbb, 0x40, 0xe3, 0x5f, 0x3d,
  0x46, 0x38, 0x59, 0xbc, 0x14, 0xa1, 0x50, 0xbf, 0x1e, 0x52, 0x00, 0x3e,
  0x8b, 0x3d, 0x37, 0xbe, 0x18, 0x0e, 0x32, 0xbe, 0x12, 0x7a, 0xb4, 0xbe,
  0x5d, 0xf6, 0xba, 0xbc, 0x16, 0xc6, 0xb5, 0xbd, 0x72, 0x7f, 0x57, 0x3e,
  0x1b, 0xb0, 0x23, 0xbe, 0x4c, 0x64, 0x37, 0x3c, 0x32, 0xf6, 0xf1, 0xbe,
  0x02, 0xae, 0xb5, 0xbd, 0xfd, 0x06, 0x93, 0xbe, 0x3c, 0xe5, 0x48, 0xbc,
  0x6c, 0xac, 0x07, 0xbe, 0xf1, 0x33, 0x34, 0x3d, 0x86, 0xc7, 0x8d, 0xbd,
  0x68, 0x19, 0x98, 0x3e, 0x01, 0x55, 0x95, 0xbe, 0xaf, 0xfa, 0x4a, 0x3d,
  0x86, 0x1a, 0xbe, 0xbd, 0x28, 0x51, 0x16, 0xbe, 0xc9, 0xa5, 0xd7, 0x3d,
  0xeb, 0x01, 0xcd, 0xbd, 0xab, 0x0b, 0x3b, 0x3d, 0xe9, 0x62, 0x05, 0xbe,
  0xb1, 0x6c, 0xa9, 0xbd, 0x46, 0x63, 0x8c, 0x3d, 0x4b, 0xe1, 0xe3, 0xbb,
  0xe5, 0x9f, 0x08, 0xbe, 0xc5, 0xa9, 0xe0, 0xbe, 0xf2, 0x9d, 0x0a, 0xbe,
  0x6f, 0x04, 0x3b, 0xbd, 0xac, 0xdb, 0x88, 0xbd, 0x71, 0x86, 0x4c, 0xbd,
  0xd0, 0x55, 0x95, 0x3e, 0x00, 0x0a, 0x11, 0xbd, 0x86, 0xbc, 0x1d, 0xbe,
  0x71, 0xa7, 0x90, 0xbe, 0xf6, 0x87, 0xf8, 0xbd, 0x62, 0xcb, 0x53, 0x3e,
  0x8b, 0xd6, 0x1c, 0x3b, 0xd8, 0x16, 0x6e, 0x3e, 0x32, 0xf6, 0x32, 0x3e,
  0xdb, 0x11, 0xe5, 0x3e, 0xfc, 0x50, 0x2a, 0xbf, 0x35, 0xee, 0x33, 0xbe,
  0x11, 0x22, 0x85, 0xbe, 0x2a, 0xd6, 0x53, 0x3e, 0x78, 0xc7, 0x32, 0xbf,
  0x70, 0xed, 0x14, 0x3e, 0x76, 0x61, 0xcf, 0xbe, 0x88, 0x91, 0x18, 0x3e,
  0x9d, 0xda, 0x92, 0xbe, 0x1e, 0x55, 0x54, 0xbe, 0xf4, 0x51, 0x10, 0xbd,
  0x90, 0x45, 0x91, 0xbe, 0x38, 0x8e, 0x10, 0x3e, 0x38, 0x22, 0x06, 0x3e,
  0x5d, 0x57, 0x9a, 0xbd, 0x1d, 0xeb, 0x17, 0x3e, 0x7c, 0xfe, 0x82, 0x3d,
  0xb0, 0xe8, 0xc9, 0xbd, 0x91, 0x83, 0xeb, 0xbb, 0x67, 0xaa, 0x70, 0xbe,
  0xff, 0x7b, 0x7c, 0x3e, 0x0c, 0xa5, 0x1a, 0xbf, 0x00, 0x0c, 0x59, 0x3e,
  0x06, 0xeb, 0x1f, 0xbf, 0xb8, 0xae, 0x8f, 0x3e, 0x41, 0x8e, 0xbb, 0x3d,
  0x35, 0xd6, 0x6b, 0xbe, 0x9f, 0x4a, 0x97, 0x3a, 0x22, 0xe9, 0x0d, 0xbe,
  0x8b, 0xe2, 0x37, 0x3e, 0x3d, 0xaa, 0x75, 0xbe, 0x58, 0xe0, 0x50, 0xbd,
  0x1f, 0x1d, 0x2a, 0xbd, 0xa8, 0x4c, 0xf3, 0x3d, 0x99, 0x15, 0xa9, 0xbe,
  0xd7, 0x01, 0x8c, 0xbe, 0xc4, 0xc9, 0x15, 0xbe, 0x63, 0x47, 0x3d, 0x3c,
  0x7f, 0x10, 0x73, 0x3d, 0xea, 0x97, 0x89, 0xbe, 0x20, 0xb5, 0x53, 0xbe,
  0xfc, 0x9e, 0xf1, 0xbd, 0xdd, 0xee, 0x39, 0xbe, 0x1a, 0xfe, 0x69, 0xbe,
  0xca, 0x2d, 0xb9, 0xbe, 0xbe, 0xb1, 0xa4, 0xbe, 0x05, 0xad, 0x4a, 0xbe,
  0x64, 0xff, 0xd7, 0xbd, 0xe4, 0xa9, 0x55, 0xbe, 0x5e, 0xc0, 0x64, 0x3c,
  0xe5, 0xfb, 0xd2, 0xbe, 0x4c, 0xc2, 0x3d, 0xbe, 0x3a, 0x38, 0xa0, 0x3d,
  0x81, 0x7e, 0xd3, 0xbb, 0xbf, 0x81, 0x2c, 0xbe, 0x2d, 0xac, 0x6e, 0xbd,
  0xc5, 0x1f, 0x2b, 0xbe, 0x91, 0xba, 0x2b, 0xbc, 0xb5, 0x45, 0x54, 0xbd,
  0x8c, 0xda, 0xbd, 0x3d, 0xc8, 0x53, 0x0c, 0x3f, 0xf4, 0x01, 0xfd, 0x3c,
  0x09, 0x7d, 0x20, 0x3e, 0x33, 0x72, 0x41, 0xbe, 0x9a, 0x1f, 0xab, 0xbd,
  0x11, 0xed, 0xe2, 0xbd, 0xca, 0x82, 0x1d, 0x3d, 0xe4, 0x41, 0xfd, 0xbd,
  0xd8, 0x77, 0xc8, 0x3d, 0x92, 0xc7, 0x27, 0x3e, 0xd2, 0x03, 0x6b, 0x3e,
  0x88, 0xf8, 0xfb, 0x3e, 0x8a, 0x87, 0xcc, 0xbd, 0x39, 0xeb, 0x39, 0xbd,
  0xf0, 0x94, 0x63, 0x3b, 0xd4, 0xbc, 0xea, 0xbc, 0x04, 0xe2, 0xf1, 0x3c,
  0xcb, 0xb2, 0x37, 0x3e, 0xfe, 0x4c, 0x4b, 0x3e, 0x37, 0xee, 0x23, 0x3d,
  0x96, 0x02, 0x47, 0xbc, 0xbd, 0x98, 0x6c, 0x3d, 0xc3, 0x89, 0xd2, 0xbd,
  0x9d, 0x59, 0x6d, 0x3d, 0xda, 0x4e, 0x1e, 0xbe, 0xe9, 0x59, 0x80, 0xbd,
  0x04, 0x3d, 0x3f, 0x3e, 0x10, 0x16, 0x07, 0xbe, 0x85, 0x87, 0x5e, 0xbd,
  0x08, 0x29, 0x94, 0xbd, 0x6a, 0x37, 0x5e, 0xbe, 0xbb, 0xb9, 0x00, 0x3f,
  0xc5, 0x58, 0x39, 0x3e, 0x80, 0xf8, 0x26, 0xbd, 0x11, 0x44, 0x15, 0x3e,
  0x0a, 0x1c, 0x70, 0x3e, 0xc8, 0x7e, 0x8d, 0xbe, 0x98, 0xc7, 0x86, 0xbe,
  0x69, 0x58, 0x93, 0xbe, 0x6b, 0xbb, 0xf8, 0xbc, 0x08, 0x52, 0x14, 0x3e,
  0x72, 0x7d, 0xc5, 0x3e, 0x32, 0x0b, 0xc4, 0xbd, 0xf8, 0xc5, 0x8b, 0xbd,
  0xe1, 0xca, 0x55, 0xbc, 0xb9, 0xb0, 0xab, 0xbe, 0x5d, 0x17, 0x6f, 0xbe,
  0x86, 0x2b, 0x21, 0xbd, 0xa2, 0x79, 0x63, 0x3e, 0x80, 0x72, 0x4b, 0xbe,
  0x1d, 0x18, 0x63, 0xbd, 0x4c, 0xd9, 0xf5, 0x3e, 0x85, 0x9f, 0x94, 0x3c,
  0x7f, 0x95, 0x89, 0xbe, 0x25, 0x17, 0xe9, 0xbd, 0xc7, 0x1c, 0x62, 0xbe,
  0x16, 0x80, 0xae, 0x3e, 0xec, 0xef, 0x17, 0x3c, 0x6f, 0x43, 0x9e, 0x3d,
  0x16, 0x0c, 0xb0, 0xbd, 0x3d, 0x8d, 0x9b, 0x3d, 0x78, 0x4e, 0xfc, 0xbd,
  0x74, 0x89, 0xb8, 0x3e, 0x18, 0x17, 0x96, 0xbe, 0x54, 0xd1, 0xb9, 0x3e,
  0x69, 0x1d, 0x3c, 0x3e, 0x9b, 0xb9, 0xa9, 0x3e, 0x05, 0x34, 0x2d, 0x3e,
  0xcf, 0x23, 0x82, 0x3c, 0x28, 0x58, 0x49, 0x3e, 0x44, 0x35, 0x23, 0x3d,
  0x21, 0x7f, 0x00, 0xbf, 0xf6, 0x56, 0x3e, 0x3c, 0x5c, 0x1e, 0xb9, 0xbc,
  0x09, 0xf7, 0x54, 0x3e, 0x97, 0xa2, 0x6a, 0xbe, 0x09, 0xd2, 0xcd, 0xbd,
  0xeb, 0xd0, 0x5c, 0xbe, 0x60, 0x99, 0x0b, 0xbe, 0x44, 0x0d, 0x30, 0xbe,
  0xfe, 0x24, 0x1f, 0xbd, 0xf6, 0x84, 0x28, 0xbe, 0x33, 0x9f, 0xa3, 0x3e,
  0x08, 0xcf, 0x84, 0x3d, 0x4e, 0x36, 0xdc, 0xbd, 0xe3, 0x95, 0x8f, 0xbe,
  0x72, 0xa4, 0x5e, 0xbe, 0xdd, 0x84, 0xb5, 0x3a, 0xc9, 0x87, 0xdc, 0xbb,
  0xcb, 0xd2, 0x30, 0xbd, 0x2c, 0x3a, 0xb5, 0x3e, 0x64, 0x27, 0x22, 0x3c,
  0x76, 0xc7, 0x1a, 0xbe, 0xba, 0xed, 0x3c, 0xbe, 0x5e, 0x1c, 0x88, 0xbd,
  0xdc, 0x12, 0x33, 0xbe, 0x4c, 0xe3, 0xeb, 0x3b, 0xf0, 0xbd, 0x56, 0xbd,
  0xef, 0xe0, 0x0f, 0x3d, 0xdd, 0xa4, 0xdd, 0x3d, 0xc2, 0x5d, 0xfc, 0xbd,
  0x68, 0xcf, 0x83, 0xbe, 0xee, 0x5d, 0x94, 0xbe, 0x74, 0x0c, 0x31, 0xbe,
  0x9f, 0x3a, 0x77, 0xbe, 0x0e, 0x93, 0x84, 0xbe, 0xeb, 0x42, 0xe2, 0x3d,
  0x11, 0x46, 0x06, 0xbe, 0xd7, 0x0a, 0x33, 0xbe, 0x4c, 0x21, 0x54, 0xbe,
  0x2b, 0xe9, 0x68, 0x3d, 0x9a, 0xb3, 0xa5, 0xbe, 0x26, 0xd3, 0x08, 0xbe,
  0x11, 0x5f, 0xda, 0xbd, 0x21, 0x53, 0xfe, 0x3c, 0xa9, 0xb5, 0x09, 0x3d,
  0xf9, 0xb8, 0xd3, 0x3c, 0xf7, 0x69, 0x7e, 0xbe, 0x5e, 0xf2, 0x7c, 0xbe,
  0xe0, 0x92, 0x15, 0xbe, 0xac, 0x89, 0xd5, 0xbd, 0x56, 0xaf, 0xaa, 0xbe,
  0x6c, 0xd4, 0xc4, 0x3c, 0x60, 0xb3, 0x50, 0xbe, 0x8f, 0x33, 0x85, 0xbd,
  0xa3, 0x71, 0x10, 0x3e, 0xcc, 0xb6, 0x29, 0x3e, 0x67, 0xe1, 0x22, 0x3e,
  0x8f, 0x05, 0x62, 0xbd, 0x6c, 0x12, 0x1d, 0xbe, 0x16, 0x66, 0x33, 0xbe,
  0x39, 0x90, 0x32, 0xbe, 0x53, 0xd3, 0x96, 0x3d, 0x8c, 0x96, 0x9f, 0x3d,
  0x8f, 0xd0, 0xfa, 0xbc, 0xd1, 0xf9, 0x5c, 0x3c, 0x4e, 0xfa, 0x96, 0x3d,
  0xa8, 0xab, 0xee, 0xbd, 0x05, 0xd1, 0x1d, 0xbe, 0x2d, 0xed, 0x70, 0xbd,
  0x33, 0x58, 0x74, 0xbd, 0xbf, 0x22, 0xdc, 0xbc, 0x75, 0x6b, 0x2a, 0x3c,
  0x65, 0x82, 0xf6, 0x3d, 0x3a, 0x9c, 0x77, 0x3d, 0xdf, 0x78, 0x83, 0xbd,
  0xe0, 0x5c, 0x3d, 0xbd, 0x3a, 0x2a, 0x26, 0xbc, 0xd1, 0xe0, 0xed, 0x3d,
  0xaf, 0xd3, 0x02, 0x3e, 0x2a, 0x44, 0xdf, 0xbb, 0x1e, 0x2f, 0xf2, 0x3b,
  0xf8, 0x12, 0x5e, 0x3d, 0x3b, 0xe5, 0xbd, 0x3c, 0xa2, 0xa3, 0x85, 0xbd,
  0x8b, 0xef, 0x76, 0x3d, 0xe7, 0x8d, 0x00, 0xbc, 0xa1, 0xdb, 0x40, 0xbd,
  0xfa, 0x01, 0xb3, 0xbe, 0xa5, 0x10, 0x86, 0x3d, 0x90, 0x7c, 0xa6, 0xbe,
  0x4c, 0x6f, 0x30, 0xbe, 0x95, 0x43, 0x5d, 0xbd, 0x3c, 0x19, 0x7b, 0x3e,
  0xa0, 0x4b, 0xd6, 0xbe, 0xe5, 0xd3, 0x67, 0xbe, 0x80, 0xf4, 0x1b, 0xbe,
  0xd4, 0x34, 0x44, 0xbd, 0xf6, 0x84, 0xb9, 0x3e, 0x95, 0x33, 0x8e, 0x3e,
  0xcb, 0x5b, 0xff, 0x3e, 0xbe, 0xda, 0x17, 0xbe, 0xac, 0x18, 0xd5, 0xbe,
  0xf8, 0xa4, 0x84, 0xbe, 0x05, 0xff, 0xa3, 0xbd, 0xe7, 0x22, 0x84, 0xbc,
  0x3a, 0xbe, 0xad, 0x3e, 0x1b, 0xd2, 0xfa, 0x3d, 0x41, 0x43, 0xaf, 0x3e,
  0xf5, 0x7f, 0x73, 0x3e, 0x8d, 0x6c, 0xc3, 0xbe, 0x32, 0xe0, 0xbb, 0xbd,
  0x13, 0x2a, 0xd0, 0xbd, 0x6c, 0x36, 0x9c, 0x3a, 0x79, 0x05, 0x52, 0xbd,
  0x47, 0x9d, 0x7f, 0x3d, 0x46, 0xee, 0x55, 0xbe, 0x7b, 0x17, 0x7c, 0x3e,
  0x89, 0x50, 0x5d, 0xbe, 0x7c, 0x4e, 0x0b, 0xbd, 0x5c, 0xdd, 0xbe, 0x3b,
  0x40, 0x43, 0x37, 0xbf, 0x2f, 0xc4, 0x26, 0xbe, 0xc2, 0x79, 0xde, 0x3c,
  0x64, 0xfc, 0x81, 0xbe, 0xd7, 0x54, 0x64, 0xbc, 0x62, 0xe7, 0x53, 0xbc,
  0x77, 0x84, 0x15, 0xbd, 0xbc, 0x8c, 0xa4, 0xbd, 0xe8, 0x5a, 0x3c, 0xbf,
  0x09, 0x94, 0xb1, 0x3d, 0xf1, 0x79, 0x88, 0x3d, 0x94, 0x83, 0x21, 0x3e,
  0x57, 0xfd, 0x0a, 0x3e, 0xec, 0x6f, 0x97, 0xbd, 0x32, 0x44, 0xf0, 0x3d,
  0x68, 0x48, 0xbf, 0x3d, 0xa1, 0x4c, 0x0b, 0xbf, 0x02, 0x0e, 0x60, 0xbd,
  0xd8, 0x61, 0xd6, 0x3e, 0x3d, 0x60, 0x14, 0x3f, 0x6f, 0x8f, 0xab, 0x3d,
  0xcd, 0x77, 0x4d, 0xbd, 0xea, 0x43, 0x3a, 0xbd, 0x92, 0x36, 0x74, 0x3d,
  0xcb, 0xb1, 0x4e, 0xbe, 0x54, 0xe2, 0x62, 0x3c, 0x1d, 0x38, 0xf1, 0xbe,
  0x06, 0xef, 0xd3, 0x3e, 0x77, 0x52, 0xc5, 0xbe, 0xe7, 0xe8, 0x91, 0xbd,
  0xce, 0x33, 0x03, 0xbe, 0xb4, 0xb1, 0xe8, 0xbd, 0x83, 0x71, 0x14, 0xbd,
  0x5f, 0x06, 0x5a, 0x3e, 0xc9, 0x91, 0x99, 0xbe, 0x62, 0x00, 0xd4, 0x3d,
  0xa3, 0xe2, 0x21, 0xbf, 0xb4, 0x51, 0xf4, 0xbe, 0xb5, 0x90, 0x59, 0xbe,
  0x5f, 0xff, 0x31, 0xbd, 0x6f, 0x6c, 0x2b, 0x3e, 0x36, 0xbb, 0x2c, 0x3f,
  0x1e, 0x0e, 0x01, 0xbc, 0x77, 0x52, 0x00, 0x3e, 0x61, 0x73, 0x9d, 0x3e,
  0xa1, 0x36, 0x2a, 0xbf, 0x66, 0xe4, 0x6b, 0xbe, 0xe3, 0xe1, 0xe0, 0xbd,
  0x68, 0xd3, 0x58, 0x3d, 0x81, 0x57, 0x42, 0xbf, 0x3c, 0x38, 0xdb, 0x3d,
  0xe0, 0x80, 0x05, 0xbf, 0x31, 0xd4, 0xae, 0x3e, 0x13, 0x99, 0x80, 0xbe,
  0x11, 0x70, 0x2a, 0xbe, 0x19, 0x75, 0x41, 0xbd, 0x39, 0x1b, 0xbf, 0xbd,
  0x68, 0x6f, 0x88, 0xbd, 0x58, 0x19, 0x33, 0x3e, 0xae, 0x75, 0x91, 0xbe,
  0x36, 0x52, 0x42, 0xbe, 0x43, 0xf3, 0x09, 0x3e, 0x78, 0xad, 0x61, 0xbd,
  0x80, 0x52, 0xb2, 0xbd, 0x0f, 0x62, 0x76, 0xbe, 0x2d, 0x4c, 0x08, 0xbc,
  0x8a, 0x38, 0x10, 0xbf, 0xc3, 0xf1, 0x6f, 0x3d, 0x0f, 0x94, 0x2b, 0xbf,
  0xd8, 0x13, 0xd7, 0xbc, 0x67, 0x0f, 0x10, 0xbe, 0xef, 0x4f, 0x74, 0xbd,
  0xf6, 0x4e, 0x84, 0xbd, 0x45, 0x95, 0xbc, 0xbd, 0x56, 0x5b, 0x00, 0xbe,
  0x76, 0xbc, 0xa8, 0x3e, 0xf9, 0x3d, 0xf1, 0x3d, 0xdc, 0x20, 0x18, 0xbd,
  0x3a, 0xdf, 0xae, 0xbd, 0x86, 0x0d, 0x84, 0xbd, 0x57, 0x83, 0x69, 0xbc,
  0x15, 0xdc, 0xb3, 0x3d, 0x52, 0xe5, 0xcc, 0x3c, 0xe2, 0x0d, 0x3b, 0x3e,
  0xc9, 0xa4, 0xc9, 0x3e, 0x24, 0x05, 0xb6, 0xbc, 0x2e, 0x46, 0x4c, 0xbd,
  0xc0, 0xc2, 0x1c, 0x3d, 0x46, 0x08, 0x4a, 0x3d, 0x03, 0xc6, 0x86, 0x3d,
  0x52, 0x0c, 0x31, 0x3f, 0x6b, 0x01, 0x67, 0x3e, 0xf0, 0x45, 0x5b, 0xbc,
  0x2d, 0x93, 0xe7, 0x3c, 0xf6, 0xc4, 0x1c, 0x3e, 0xa2, 0x07, 0x48, 0xbe,
  0x72, 0x78, 0x63, 0xbe, 0xb6, 0x61, 0x10, 0xbe, 0x4a, 0xd2, 0xaf, 0xbc,
  0xdd, 0xd8, 0xff, 0xbc, 0xde, 0xa0, 0x97, 0xbd, 0x52, 0x5a, 0x65, 0xbd,
  0x71, 0x6c, 0xd9, 0xbe, 0xa1, 0x29, 0xdd, 0x3e, 0xc5, 0x59, 0x50, 0x3d,
  0xae, 0xfc, 0x96, 0xbe, 0x14, 0x07, 0xa5, 0xbd, 0x04, 0x97, 0xb7, 0xbd,
  0xde, 0xa4, 0xd7, 0xbd, 0x74, 0xff, 0xfa, 0xbd, 0x84, 0xba, 0x41, 0xbe,
  0xde, 0xaf, 0x02, 0x3e, 0x7e, 0x51, 0x30, 0xbd, 0xf8, 0x3c, 0x5e, 0xbe,
  0xf2, 0x69, 0xe3, 0xbd, 0x8c, 0x6e, 0xe5, 0xbc, 0xe6, 0x54, 0x80, 0xbd,
  0xba, 0x47, 0xe3, 0x3d, 0xec, 0xfa, 0x47, 0xbe, 0xc4, 0x41, 0x90, 0x3d,
  0xdf, 0x92, 0x14, 0x3d, 0x47, 0x2a, 0x8f, 0xbc, 0x8b, 0x2e, 0x8e, 0x3d,
  0xfe, 0x99, 0x3e, 0x3d, 0x9b, 0xf2, 0x1e, 0x3e, 0xb1, 0x86, 0xa6, 0x3d,
  0x65, 0x09, 0x1e, 0xbe, 0xda, 0x98, 0xc1, 0xbe, 0xbb, 0x63, 0x00, 0x3e,
  0xa5, 0xd2, 0xa7, 0xba, 0x7a, 0xc9, 0x3b, 0x3d, 0x01, 0x95, 0x67, 0x3d,
  0xf5, 0x24, 0xaf, 0x3c, 0x14, 0x32, 0x43, 0x3d, 0x71, 0x56, 0x36, 0x3e,
  0x36, 0xde, 0xb9, 0xbe, 0xe8, 0x90, 0x2e, 0xbb, 0x38, 0x03, 0xb3, 0xbe,
  0x1d, 0x04, 0x0c, 0xbe, 0xf6, 0x55, 0x46, 0xbe, 0x32, 0x7c, 0xab, 0xbd,
  0xc9, 0x95, 0x28, 0x3c, 0xe7, 0x64, 0x08, 0xbe, 0x54, 0xb8, 0xbc, 0xbe,
  0x1f, 0x69, 0x15, 0x3e, 0x5b, 0xbc, 0x32, 0xbe, 0xb3, 0x2b, 0x48, 0x3d,
  0xaf, 0xff, 0xf8, 0xbd, 0xf2, 0xd5, 0x9d, 0x3d, 0x04, 0xe4, 0x0a, 0x3e,
  0x1f, 0x74, 0x7b, 0x3e, 0x9f, 0xd4, 0x12, 0xbf, 0x0d, 0x02, 0x66, 0xbe,
  0x28, 0x97, 0x09, 0x3e, 0x71, 0x61, 0x3c, 0xbe, 0xe9, 0x6b, 0x7a, 0xbd,
  0xa1, 0x6a, 0x57, 0xbc, 0x82, 0x1d, 0xb1, 0x3d, 0x55, 0xe3, 0x14, 0xbe,
  0x0a, 0xdf, 0xff, 0xff, 0x10, 0x00, 0x00, 0x00, 0x08, 0x00, 0x00, 0x00,
  0x1c, 0x00, 0x00, 0x00, 0x38, 0x00, 0x00, 0x00, 0x04, 0x00, 0x00, 0x00,
  0x10, 0x00, 0x00, 0x00, 0x04, 0x00, 0x00, 0x00, 0x01, 0x00, 0x00, 0x00,
  0x08, 0x00, 0x00, 0x00, 0x1a, 0x00, 0x00, 0x00, 0x73, 0x65, 0x71, 0x75,
  0x65, 0x6e, 0x74, 0x69, 0x61, 0x6c, 0x2f, 0x63, 0x6f, 0x6e, 0x76, 0x32,
  0x64, 0x5f, 0x31, 0x2f, 0x43, 0x6f, 0x6e, 0x76, 0x32, 0x44, 0x00, 0x00,
  0x04, 0xdf, 0xff, 0xff, 0xfa, 0xdf, 0xff, 0xff, 0x04, 0x00, 0x00, 0x00,
  0x80, 0x01, 0x00, 0x00, 0x92, 0xc5, 0x9b, 0xbc, 0x23, 0x37, 0x5d, 0xbe,
  0x9e, 0x74, 0x87, 0x3e, 0x90, 0x28, 0xc4, 0xbd, 0xe3, 0xd6, 0x9c, 0x3d,
  0x57, 0x51, 0x25, 0x3e, 0x60, 0x63, 0x04, 0xbe, 0xf8, 0xc6, 0xe7, 0x3d,
  0xd5, 0x07, 0x3c, 0x3d, 0xd0, 0xc5, 0x03, 0xbd, 0x48, 0x46, 0x27, 0x3e,
  0xcf, 0xf2, 0x67, 0x3d, 0x6d, 0x30, 0xc7, 0x3e, 0x92, 0xf6, 0xd1, 0xbd,
  0xdd, 0xba, 0x66, 0xbd, 0x1e, 0x41, 0x40, 0x3e, 0x8e, 0x8a, 0x63, 0x3c,
  0xb9, 0x67, 0x01, 0xbb, 0xb4, 0xf6, 0x05, 0x3e, 0x63, 0x28, 0x5b, 0x3e,
  0xab, 0x39, 0x9b, 0xbd, 0xbe, 0x25, 0x2f, 0xbe, 0xe3, 0xf6, 0x98, 0x3d,
  0x21, 0x13, 0x28, 0x3e, 0xfa, 0x3a, 0x65, 0xbd, 0x42, 0xd7, 0x1b, 0xbc,
  0x5b, 0xb5, 0x99, 0x3c, 0xea, 0x06, 0xde, 0xbe, 0x4b, 0xfb, 0xe0, 0xbe,
  0xc6, 0x6c, 0x1d, 0xbd, 0x51, 0xb9, 0x77, 0x3e, 0xc8, 0x4c, 0x08, 0x3e,
  0x04, 0x3f, 0xf9, 0xbd, 0xff, 0x9f, 0x4c, 0x3e, 0xe9, 0x0d, 0x85, 0x3e,
  0x73, 0x66, 0x73, 0x3d, 0x52, 0x04, 0x99, 0x3e, 0x27, 0xcf, 0x4f, 0x3c,
  0x49, 0x9a, 0x58, 0xbd, 0xdc, 0xc5, 0xe7, 0x3e, 0xd8, 0xa1, 0x6a, 0x3b,
  0x97, 0xca, 0x81, 0xbe, 0xea, 0xef, 0xcd, 0xbe, 0xff, 0xae, 0x1a, 0x3e,
  0x54, 0xf4, 0xa0, 0x3e, 0xeb, 0x16, 0xb4, 0xbe, 0xab, 0xc7, 0xf5, 0xbd,
  0xb8, 0xd3, 0x64, 0x3d, 0x3a, 0x90, 0x07, 0x3d, 0xc1, 0xc7, 0x67, 0xbe,
  0x08, 0xc4, 0x5d, 0x3c, 0xed, 0x2e, 0xad, 0xbd, 0x09, 0x4c, 0x00, 0xbf,
  0xfa, 0xab, 0x60, 0x3d, 0x3a, 0x1f, 0x66, 0x3d, 0x1c, 0xcf, 0xfd, 0x3e,
  0xe7, 0x31, 0xc5, 0x3d, 0x18, 0x7f, 0xa8, 0x3c, 0x24, 0xdb, 0x82, 0x3e,
  0x7d, 0x16, 0x16, 0xbe, 0x84, 0xc2, 0xff, 0x3c, 0xed, 0x11, 0x6b, 0x3c,
  0x8b, 0xf3, 0x68, 0xbd, 0x83, 0x3f, 0xda, 0x3e, 0xc7, 0x8b, 0x88, 0x3d,
  0x8e, 0xb5, 0x75, 0x3d, 0xd5, 0xd7, 0xfa, 0xbd, 0xcd, 0x6c, 0xab, 0x3e,
  0x15, 0x4e, 0x32, 0x3e, 0xc0, 0x63, 0xb6, 0xbe, 0xd0, 0x60, 0xcb, 0xbe,
  0x88, 0x28, 0x47, 0xbe, 0xe9, 0x67, 0xe2, 0xbd, 0xba, 0x96, 0x1a, 0xbe,
  0xe7, 0x0b, 0xc3, 0x3c, 0x59, 0x64, 0x8d, 0x3c, 0x85, 0x9f, 0xb0, 0xbc,
  0xd4, 0x43, 0xa6, 0x3c, 0x2d, 0x0b, 0x00, 0x3d, 0x21, 0x94, 0xb7, 0xbd,
  0x2c, 0x40, 0xbf, 0xbb, 0x58, 0xeb, 0xed, 0x3a, 0x40, 0x24, 0x0a, 0xbe,
  0xe9, 0xbd, 0xae, 0x3d, 0xca, 0x87, 0x07, 0x3e, 0x9e, 0x69, 0xb7, 0x3d,
  0x3c, 0xa3, 0x29, 0xbe, 0x1f, 0x52, 0xd0, 0x3c, 0x3c, 0x28, 0x82, 0x3d,
  0xaa, 0xa9, 0x13, 0xbe, 0x9b, 0xfc, 0x3f, 0x3d, 0x2a, 0x05, 0x86, 0xbc,
  0x3d, 0x8e, 0x75, 0xbd, 0x5c, 0x57, 0x18, 0x3e, 0x3f, 0x13, 0x1b, 0xbe,
  0x8c, 0x8f, 0x2b, 0x3c, 0xe2, 0xe0, 0xff, 0xff, 0x10, 0x00, 0x00, 0x00,
  0x07, 0x00, 0x00, 0x00, 0x1c, 0x00, 0x00, 0x00, 0x38, 0x00, 0x00, 0x00,
  0x04, 0x00, 0x00, 0x00, 0x08, 0x00, 0x00, 0x00, 0x04, 0x00, 0x00, 0x00,
  0x03, 0x00, 0x00, 0x00, 0x01, 0x00, 0x00, 0x00, 0x18, 0x00, 0x00, 0x00,
  0x73, 0x65, 0x71, 0x75, 0x65, 0x6e, 0x74, 0x69, 0x61, 0x6c, 0x2f, 0x63,
  0x6f, 0x6e, 0x76, 0x32, 0x64, 0x2f, 0x43, 0x6f, 0x6e, 0x76, 0x32, 0x44,
  0x00, 0x00, 0x00, 0x00, 0xdc, 0xe0, 0xff, 0xff, 0xd2, 0xe1, 0xff, 0xff,
  0x04, 0x00, 0x00, 0x00, 0xc0, 0x00, 0x00, 0x00, 0x0d, 0xf4, 0xc5, 0x3d,
  0x4f, 0xb6, 0x91, 0x3e, 0x36, 0x36, 0x90, 0x3e, 0x82, 0xc1, 0x6c, 0x3d,
  0x38, 0xd8, 0x81, 0xbe, 0x6b, 0xc6, 0xe2, 0x3d, 0x3e, 0x1c, 0x20, 0x3e,
  0x83, 0xb6, 0x5a, 0xbd, 0xb8, 0x43, 0x78, 0x3e, 0x16, 0xbe, 0xfd, 0x3d,
  0x56, 0xd5, 0x23, 0xbe, 0x49, 0x08, 0x69, 0x3e, 0x1f, 0x5b, 0xd2, 0x3e,
  0xe4, 0xff, 0x62, 0x3e, 0x99, 0x32, 0x88, 0xbd, 0x45, 0xa7, 0x67, 0xbe,
  0x1f, 0xad, 0xcf, 0x3d, 0xf1, 0x5d, 0xa1, 0x3e, 0x37, 0x10, 0x94, 0x3e,
  0x7e, 0x7a, 0x8e, 0x3d, 0x3b, 0xdc, 0x37, 0x3e, 0xee, 0xe0, 0x1a, 0x3e,
  0x65, 0xf2, 0x09, 0x3e, 0xd3, 0x40, 0xbd, 0x3d, 0x8a, 0xcc, 0x91, 0x3e,
  0x84, 0xb0, 0x11, 0x3e, 0xef, 0x7a, 0xb8, 0x3e, 0x94, 0x1d, 0x2e, 0x3e,
  0x5f, 0xf0, 0xe1, 0x3e, 0xe8, 0x7f, 0x3c, 0x3e, 0xdf, 0x83, 0x5e, 0xbe,
  0xe9, 0x2c, 0x44, 0xbe, 0x11, 0xa9, 0x12, 0x3e, 0xa4, 0x4e, 0xab, 0x3e,
  0x5c, 0x9a, 0xaa, 0x3e, 0x9e, 0x7e, 0x3f, 0x3d, 0x88, 0x04, 0xbc, 0x3d,
  0x66, 0xbd, 0xcf, 0x3d, 0xc0, 0x22, 0xab, 0x3d, 0x3c, 0x73, 0xdd, 0x3d,
  0x01, 0x61, 0xf1, 0x3d, 0x7c, 0x8a, 0x50, 0x3e, 0x5d, 0xe0, 0x84, 0xbe,
  0x8b, 0x40, 0xfd, 0x3d, 0x38, 0x08, 0xb8, 0x3e, 0x2e, 0x92, 0x2a, 0x3e,
  0x0b, 0x4e, 0xaf, 0x3e, 0x89, 0xb8, 0x1a, 0xbe, 0xfa, 0xe1, 0xff, 0xff,
  0x10, 0x00, 0x00, 0x00, 0x06, 0x00, 0x00, 0x00, 0x14, 0x00, 0x00, 0x00,
  0x30, 0x00, 0x00, 0x00, 0x02, 0x00, 0x00, 0x00, 0x03, 0x00, 0x00, 0x00,
  0x10, 0x00, 0x00, 0x00, 0x19, 0x00, 0x00, 0x00, 0x73, 0x65, 0x71, 0x75,
  0x65, 0x6e, 0x74, 0x69, 0x61, 0x6c, 0x2f, 0x64, 0x65, 0x6e, 0x73, 0x65,
  0x5f, 0x31, 0x2f, 0x4d, 0x61, 0x74, 0x4d, 0x75, 0x6c, 0x00, 0x00, 0x00,
  0xec, 0xe1, 0xff, 0xff, 0xe2, 0xe2, 0xff, 0xff, 0x04, 0x00, 0x00, 0x00,
  0x00, 0x1c, 0x00, 0x00, 0xee, 0xfa, 0xae, 0xbe, 0x2c, 0x7e, 0x87, 0xbe,
  0x59, 0x08, 0x29, 0xbe, 0x0b, 0x1a, 0x53, 0x3d, 0x9a, 0xd0, 0x7c, 0x3e,
  0xf1, 0xa6, 0x41, 0xbe, 0x3f, 0x0f, 0x28, 0x3e, 0xfd, 0x0a, 0x2d, 0xbe,
  0x46, 0xf5, 0x5d, 0xbd, 0x48, 0xa3, 0x0c, 0x3e, 0xd8, 0x26, 0xf4, 0xbe,
  0x2f, 0x36, 0x1e, 0xbf, 0xd0, 0x4b, 0x92, 0xbe, 0x67, 0x49, 0xf2, 0x3d,
  0xbc, 0x50, 0x25, 0x3d, 0xa4, 0x3a, 0x8a, 0x3e, 0xa4, 0xe6, 0x4a, 0xbd,
  0x78, 0x07, 0x1a, 0x3e, 0xf5, 0x6f, 0x88, 0xbe, 0x67, 0xd2, 0x16, 0x3e,
  0x6a, 0xe4, 0x67, 0x3e, 0x80, 0x2f, 0x93, 0x3c, 0x27, 0x01, 0x33, 0x3e,
  0x60, 0x3b, 0x13, 0xbf, 0xbf, 0xd7, 0x2a, 0xbd, 0x19, 0x11, 0x8f, 0x3d,
  0x96, 0x2e, 0xa0, 0x3d, 0xf4, 0xa2, 0x1c, 0xbf, 0x95, 0x93, 0x04, 0x3e,
  0xc9, 0x38, 0xb2, 0xbe, 0xe7, 0x3b, 0x78, 0x3e, 0xb4, 0x1d, 0x1f, 0x3e,
  0x85, 0x3b, 0xee, 0x3b, 0x5a, 0x6a, 0xf1, 0x3d, 0x73, 0xb6, 0x90, 0x3d,
  0xf7, 0xe5, 0xbd, 0x3d, 0x17, 0xa8, 0xe1, 0x3d, 0x2d, 0x42, 0x9a, 0x3d,
  0xd0, 0xcf, 0x3b, 0x3e, 0x58, 0x70, 0x8e, 0xbe, 0xdb, 0xf5, 0x00, 0xbe,
  0x33, 0x69, 0x0a, 0x3d, 0xa7, 0x23, 0x93, 0xbd, 0x80, 0x41, 0xe1, 0xbe,
  0x46, 0xf5, 0xdb, 0xbb, 0xa0, 0x25, 0x53, 0xbe, 0xcf, 0x7b, 0x27, 0x3e,
  0x62, 0x48, 0x21, 0x3e, 0x89, 0x97, 0x96, 0x3d, 0x2f, 0x8a, 0x28, 0x3e,
  0xb8, 0xed, 0x2e, 0xbe, 0x09, 0x77, 0xcb, 0x3d, 0x63, 0xf6, 0x64, 0xbd,
  0x35, 0x0d, 0x13, 0x3e, 0xbb, 0x6a, 0xe4, 0x3d, 0x82, 0x7c, 0x7b, 0xbd,
  0xdf, 0xf7, 0x43, 0xbd, 0x19, 0xfb, 0x1a, 0x3d, 0xab, 0x14, 0x1c, 0x3e,
  0x2e, 0xaf, 0xe5, 0xbe, 0x10, 0x93, 0xd9, 0x3b, 0x13, 0xd1, 0x44, 0xbe,
  0x76, 0x95, 0x80, 0xbc, 0x0a, 0xa4, 0x97, 0xbd, 0xf1, 0xe1, 0x47, 0x3d,
  0xbb, 0x3a, 0x27, 0x3e, 0xbf, 0x4f, 0x6b, 0xbe, 0xa8, 0x8f, 0xc1, 0xbc,
  0x65, 0x57, 0x2c, 0x3e, 0xa5, 0x1b, 0x0e, 0x3e, 0x57, 0x8a, 0x1a, 0x3c,
  0x12, 0x5f, 0xb4, 0xbc, 0x77, 0x54, 0x0f, 0x3d, 0xdb, 0x9d, 0xb0, 0x3d,
  0xaa, 0xba, 0x59, 0xbd, 0x39, 0xe9, 0xdb, 0xbe, 0xc4, 0x3d, 0x33, 0x3e,
  0x96, 0x69, 0x9d, 0xbe, 0x1e, 0x7d, 0x27, 0x3d, 0x82, 0x35, 0x42, 0x3e,
  0x10, 0x44, 0x3e, 0xbe, 0x94, 0x3d, 0x29, 0xbd, 0xc0, 0x87, 0x0b, 0xbe,
  0x6f, 0x45, 0x97, 0xbc, 0x79, 0xf8, 0x77, 0x3e, 0xb2, 0x65, 0x45, 0x3d,
  0xee, 0x46, 0xaf, 0x3d, 0x98, 0x5e, 0x99, 0xbe, 0x30, 0x5b, 0xb8, 0x3d,
  0x18, 0xb6, 0x13, 0x3d, 0x0b, 0xf8, 0x54, 0xbe, 0x56, 0x51, 0x2b, 0xbf,
  0x65, 0x28, 0x13, 0xbe, 0x5b, 0x3b, 0x60, 0xbf, 0xa2, 0x08, 0x4b, 0x3d,
  0x81, 0xa6, 0x2e, 0x3e, 0xb1, 0x17, 0x68, 0xbd, 0x01, 0xbd, 0x9f, 0x3c,
  0x5f, 0xfb, 0xf0, 0x3c, 0x4f, 0xf5, 0x19, 0x3e, 0xd3, 0xf2, 0xc6, 0xbc,
  0xe3, 0x40, 0x09, 0x3d, 0x3c, 0xc1, 0x43, 0xbd, 0xc0, 0xba, 0xa9, 0xbd,
  0x92, 0x91, 0xee, 0xbd, 0x97, 0x08, 0xef, 0x3b, 0xb0, 0xf9, 0x10, 0xbe,
  0xc3, 0x4b, 0xb2, 0xbd, 0xed, 0x0e, 0x75, 0xbc, 0xe1, 0xb2, 0x1d, 0xbe,
  0x6a, 0x64, 0x00, 0x3e, 0xe8, 0xff, 0x4f, 0x3e, 0x9a, 0x30, 0xd9, 0xbd,
  0xfd, 0x71, 0x12, 0xbf, 0x41, 0x11, 0x51, 0xbe, 0x2e, 0x45, 0x58, 0xbe,
  0x2e, 0x67, 0x41, 0x3d, 0x17, 0x0b, 0x12, 0xbe, 0xee, 0x1b, 0xfc, 0x3d,
  0x14, 0x57, 0xf6, 0xbd, 0xdc, 0xa3, 0xbd, 0xbb, 0x8c, 0xae, 0xbc, 0x3b,
  0x11, 0xb6, 0xb0, 0xbe, 0x84, 0xf1, 0x91, 0xbe, 0xcb, 0x0a, 0xbd, 0xbe,
  0xfb, 0xf6, 0xe9, 0xbb, 0x30, 0xa8, 0x2a, 0x3e, 0x67, 0x36, 0x61, 0x3e,
  0x3a, 0x85, 0xde, 0x3e, 0x65, 0x89, 0x7e, 0xbe, 0x66, 0x69, 0x81, 0xbe,
  0x5f, 0x97, 0x1c, 0x3d, 0x1e, 0xbe, 0x12, 0xbd, 0xb4, 0x7d, 0xb9, 0x3a,
  0x34, 0xfb, 0x81, 0x3e, 0xbf, 0xb2, 0xb0, 0xbe, 0xf3, 0x26, 0x9c, 0x3d,
  0x09, 0xe3, 0x86, 0x3d, 0xe8, 0xe9, 0x03, 0x3f, 0x27, 0x43, 0xc8, 0x3c,
  0x6a, 0x4a, 0x61, 0xbe, 0xe7, 0xc9, 0xbb, 0xbe, 0x80, 0xdb, 0x09, 0x3e,
  0x37, 0x25, 0x91, 0x3d, 0xd3, 0x59, 0x11, 0x3f, 0x90, 0x02, 0x47, 0xbe,
  0x66, 0x63, 0x81, 0xbe, 0xe0, 0x1a, 0x54, 0x3b, 0xcb, 0x75, 0xa2, 0xbd,
  0x07, 0xfa, 0xfe, 0x3d, 0x06, 0x45, 0x58, 0x3e, 0xf3, 0x07, 0x94, 0xbb,
  0xbb, 0x38, 0xc8, 0xbd, 0x20, 0x9b, 0xda, 0x3d, 0x34, 0x43, 0xf6, 0x3e,
  0x27, 0x94, 0x1b, 0xbe, 0x05, 0xdb, 0xe8, 0xbd, 0x2b, 0xe9, 0x9a, 0xbe,
  0xeb, 0xb7, 0xac, 0x3d, 0x08, 0xaa, 0x03, 0x3e, 0x09, 0x99, 0x1d, 0x3f,
  0x33, 0xec, 0x83, 0xbe, 0x1e, 0x5b, 0xea, 0xbd, 0x25, 0x4d, 0x78, 0xbd,
  0xb2, 0xfe, 0x90, 0x3c, 0xbb, 0x2a, 0x83, 0xbd, 0x8f, 0x53, 0x49, 0x3e,
  0x21, 0x6c, 0x62, 0xbd, 0x75, 0x63, 0x3b, 0xbc, 0x5b, 0x4e, 0xfd, 0x3c,
  0x2f, 0x94, 0xb5, 0x3e, 0x11, 0x4e, 0x82, 0xbe, 0x67, 0x8c, 0x60, 0x3e,
  0x19, 0x5f, 0xaf, 0xbd, 0x6f, 0x30, 0x80, 0xba, 0x9d, 0x26, 0x46, 0x3d,
  0xdc, 0x85, 0xbd, 0x3e, 0xf1, 0xdf, 0xd5, 0xbe, 0x58, 0x5f, 0x96, 0xbe,
  0x88, 0x7d, 0x7c, 0xbd, 0x71, 0x0a, 0x41, 0x3e, 0xb2, 0x73, 0xb6, 0x3d,
  0x5f, 0xee, 0x8e, 0x3e, 0xbc, 0x52, 0xcf, 0xbc, 0xe3, 0xd3, 0x54, 0xbb,
  0x7e, 0x7a, 0x11, 0xbd, 0x0d, 0x09, 0x76, 0x3e, 0x1b, 0xe8, 0x0e, 0xbe,
  0xbf, 0x1f, 0x69, 0xbe, 0x33, 0x11, 0x34, 0xbe, 0x83, 0x8d, 0x90, 0x3d,
  0xa0, 0x64, 0xee, 0x3d, 0xce, 0x8d, 0x79, 0x3e, 0x56, 0x2a, 0xfa, 0xbe,
  0xc2, 0x91, 0xd5, 0x3d, 0xeb, 0x00, 0x21, 0xbe, 0x8f, 0x96, 0x1b, 0x3e,
  0x64, 0x4a, 0x84, 0xbb, 0xca, 0xd7, 0x0f, 0x3e, 0x0f, 0x72, 0x9f, 0x3c,
  0x8e, 0x73, 0xc5, 0xbd, 0x3e, 0x3f, 0x78, 0x3c, 0xfd, 0x4f, 0x21, 0x3e,
  0xaf, 0x51, 0x68, 0xbd, 0x68, 0xa8, 0xef, 0xbd, 0xc0, 0x87, 0xeb, 0xbe,
  0xbe, 0x77, 0x11, 0x3e, 0xc6, 0xd4, 0xb6, 0x3e, 0xa6, 0x18, 0xce, 0xbc,
  0x24, 0xa1, 0x99, 0xbc, 0x76, 0x4b, 0x2b, 0x3e, 0x00, 0xc6, 0xbe, 0x3c,
  0x5e, 0x4a, 0x13, 0xbe, 0x4d, 0x57, 0x88, 0x3b, 0xb0, 0x30, 0x11, 0xbb,
  0x5b, 0x61, 0xa2, 0xbd, 0x72, 0x09, 0xcc, 0x3d, 0x2d, 0xb1, 0xb6, 0x3d,
  0xa2, 0x02, 0x81, 0xbd, 0xe9, 0x7c, 0x1a, 0xbe, 0x31, 0xe7, 0x70, 0xbb,
  0x83, 0x03, 0x19, 0xbe, 0xde, 0xc1, 0x29, 0x3c, 0x78, 0xcd, 0x4f, 0x3e,
  0xf0, 0x4c, 0xe4, 0xbe, 0xc1, 0x89, 0x83, 0xbe, 0x71, 0x46, 0x97, 0xbd,
  0xfe, 0x69, 0xe9, 0x3b, 0x0b, 0xb2, 0xfd, 0x3d, 0x0f, 0x15, 0xa4, 0xbe,
  0xd8, 0xc2, 0xdb, 0x3d, 0x0f, 0x04, 0x91, 0xbe, 0x73, 0x1b, 0x15, 0x3e,
  0x0e, 0xcc, 0x0d, 0x3c, 0xcf, 0x05, 0x11, 0xbf, 0xcb, 0x5d, 0xab, 0xbe,
  0x65, 0xa8, 0xbd, 0xbe, 0xac, 0xff, 0x4b, 0x3d, 0xf6, 0xdf, 0x95, 0x3e,
  0x1c, 0xad, 0x27, 0x3e, 0xbd, 0x44, 0x8f, 0x3e, 0xd1, 0xa5, 0x83, 0x3e,
  0xe3, 0x5b, 0x90, 0xbe, 0xd6, 0x8d, 0xf6, 0x3c, 0xcc, 0xcc, 0x18, 0xbe,
  0xec, 0x25, 0x65, 0xbe, 0x95, 0x58, 0x97, 0x3e, 0xd1, 0x30, 0x08, 0xbf,
  0x90, 0xd6, 0x5d, 0xbe, 0x77, 0x10, 0x20, 0x3d, 0xf0, 0x81, 0x01, 0x3e,
  0x8b, 0xe8, 0xc9, 0x3b, 0x9b, 0x46, 0x56, 0xbd, 0x4e, 0x9d, 0x65, 0xbe,
  0xaf, 0x69, 0x28, 0x3e, 0xb9, 0x37, 0x10, 0x3e, 0xab, 0x69, 0x49, 0x3e,
  0x81, 0xe2, 0xb8, 0x3d, 0xcd, 0x27, 0x82, 0xbe, 0x4a, 0xcc, 0xd4, 0x3c,
  0x3a, 0x4b, 0x18, 0x3e, 0x67, 0xb5, 0xe0, 0xbb, 0x24, 0x2e, 0xc0, 0x3d,
  0x46, 0x89, 0x8c, 0xbe, 0x55, 0x7a, 0x96, 0xbd, 0x00, 0xae, 0xdd, 0x3d,
  0xc4, 0x3a, 0xbb, 0x3d, 0xf7, 0xf0, 0x38, 0xbe, 0xf1, 0xb0, 0x2e, 0x3e,
  0x51, 0x49, 0x39, 0xbe, 0xf0, 0xb5, 0x19, 0x3e, 0xca, 0xa2, 0x1c, 0xbd,
  0xfd, 0xbc, 0x15, 0xbd, 0x84, 0xd7, 0x2b, 0x3e, 0x9e, 0x54, 0x5b, 0xbe,
  0xe6, 0xdd, 0xdc, 0xbd, 0xdc, 0x1f, 0x39, 0x3e, 0x0d, 0x94, 0x65, 0xbd,
  0x22, 0xe4, 0x71, 0x3e, 0x1c, 0xa2, 0x02, 0x3c, 0x11, 0x7b, 0x6c, 0xbd,
  0x5e, 0x65, 0xfc, 0x3c, 0xa2, 0x3b, 0x68, 0x3e, 0xe8, 0x8d, 0x78, 0xbe,
  0xb9, 0xa2, 0x6d, 0x3e, 0x68, 0x40, 0xd4, 0xbd, 0xb5, 0x0c, 0x01, 0x3e,
  0xa6, 0x33, 0x48, 0x3e, 0x6b, 0x87, 0xe8, 0xbc, 0xf3, 0x07, 0xe1, 0x3d,
  0xb2, 0x86, 0x60, 0xbe, 0x54, 0xbe, 0x58, 0x3e, 0x81, 0x29, 0xd7, 0x3c,
  0x35, 0xda, 0xf6, 0xbd, 0x44, 0x87, 0xa4, 0x3e, 0x84, 0x56, 0x91, 0xbb,
  0x88, 0xee, 0x13, 0x3e, 0x42, 0x2e, 0x4e, 0x3d, 0x67, 0x3d, 0x0d, 0xbe,
  0x00, 0x1e, 0xb6, 0xbd, 0x72, 0xc4, 0xca, 0x3d, 0xe1, 0x84, 0x69, 0xbe,
  0x8d, 0xce, 0x97, 0x3d, 0xcf, 0xe0, 0xee, 0x3e, 0xef, 0x37, 0x91, 0xbe,
  0x7f, 0xfe, 0xe8, 0x3c, 0xe9, 0x1e, 0xb6, 0x3d, 0x93, 0x27, 0x92, 0x3d,
  0x8b, 0xb6, 0x1f, 0x3e, 0x23, 0x1d, 0xe9, 0xbd, 0x22, 0xb8, 0x86, 0x3d,
  0xbe, 0x2f, 0x31, 0xbe, 0xf9, 0x99, 0x03, 0xbe, 0xfd, 0xbe, 0x04, 0x3b,
  0xe8, 0xc6, 0x99, 0xbe, 0x09, 0x0e, 0x88, 0xbe, 0x87, 0x3f, 0x3a, 0xbc,
  0x4c, 0x0c, 0x13, 0xbf, 0x69, 0xbf, 0x50, 0x3e, 0xd6, 0x10, 0xbf, 0x3e,
  0xbd, 0xb4, 0xb9, 0x3b, 0xe6, 0x6b, 0xff, 0xbc, 0xe0, 0x8a, 0x24, 0x3e,
  0x35, 0xa3, 0x6b, 0x3e, 0x73, 0xc8, 0x73, 0x3d, 0xc0, 0xcd, 0x89, 0xbc,
  0xb7, 0x92, 0x35, 0xbd, 0x12, 0xf9, 0x78, 0xbd, 0x1f, 0xc3, 0xdf, 0x3a,
  0x6a, 0x6f, 0x48, 0x3d, 0xa6, 0xc5, 0xf7, 0xbd, 0x60, 0x09, 0x90, 0xbc,
  0xe3, 0xf9, 0x7f, 0xbd, 0x76, 0xab, 0x6e, 0xbe, 0x12, 0x2a, 0x8f, 0x3e,
  0x69, 0xa6, 0xdf, 0x3d, 0xbf, 0xc0, 0x1c, 0x3e, 0x1e, 0x7f, 0xcf, 0x3c,
  0x9e, 0xdb, 0x15, 0x3d, 0x2c, 0x20, 0x49, 0x3e, 0xcd, 0x7f, 0x07, 0xbe,
  0x42, 0xf4, 0x5d, 0x3d, 0xa9, 0xb5, 0x28, 0x3e, 0x30, 0x51, 0xbe, 0xbe,
  0x53, 0x84, 0x84, 0xbe, 0xb9, 0x73, 0x33, 0xbd, 0x3b, 0xf6, 0x8f, 0x3e,
  0xf9, 0x89, 0x83, 0xbe, 0xec, 0x20, 0x69, 0x3e, 0x12, 0x99, 0xbc, 0xbd,
  0x3e, 0x78, 0xa7, 0xbe, 0xfc, 0x51, 0x05, 0xbd, 0x6f, 0xed, 0xf5, 0xbc,
  0xd7, 0xde, 0x05, 0x3e, 0x6e, 0x1a, 0x99, 0xbd, 0xd2, 0x72, 0x96, 0x3e,
  0xaf, 0x8c, 0x3e, 0x3e, 0xf8, 0xcd, 0xc3, 0xbd, 0x57, 0xb4, 0x02, 0x3e,
  0xfc, 0x20, 0x78, 0xbd, 0x5d, 0x0b, 0xf4, 0xbd, 0x92, 0x7d, 0x03, 0xbd,
  0x81, 0xf1, 0x7f, 0xbe, 0x8e, 0xb1, 0x87, 0x3d, 0x01, 0x14, 0x07, 0x3e,
  0xac, 0x58, 0xd1, 0xbc, 0x28, 0x29, 0xac, 0xbd, 0xf7, 0xb8, 0xb6, 0xbd,
  0xdb, 0x0a, 0x06, 0xbf, 0x86, 0x2c, 0x8c, 0xbe, 0x0c, 0x0f, 0x88, 0x3d,
  0x95, 0x19, 0xb0, 0xbd, 0xe6, 0x01, 0xdf, 0x3d, 0xa4, 0x7e, 0xb4, 0xbd,
  0xfa, 0x75, 0x1c, 0xbf, 0x70, 0x46, 0x26, 0xbe, 0x76, 0xa5, 0x08, 0xbd,
  0x91, 0x8e, 0xdb, 0x3b, 0xee, 0xf6, 0xac, 0xbe, 0x0d, 0xab, 0x9e, 0x3e,
  0x54, 0xaa, 0x0c, 0x3e, 0x9c, 0xc5, 0xc4, 0xbe, 0x37, 0x75, 0x1d, 0x3d,
  0xad, 0x03, 0x6b, 0x3c, 0x45, 0xfc, 0x0a, 0xbf, 0x09, 0x12, 0x06, 0xbf,
  0xa7, 0x94, 0xcd, 0x3d, 0xb3, 0x2f, 0x4b, 0xbe, 0xef, 0x4e, 0xb4, 0xbd,
  0x6b, 0xed, 0xe3, 0xbd, 0xa2, 0xb0, 0xc1, 0xbe, 0x40, 0x48, 0xbc, 0xbe,
  0xf0, 0xf2, 0x15, 0x3e, 0xf8, 0xf5, 0xb6, 0xbc, 0x85, 0x01, 0xd4, 0xbe,
  0x49, 0x7c, 0x8a, 0xbe, 0x8a, 0x76, 0xdd, 0xbd, 0xdc, 0xe7, 0x06, 0xbf,
  0xfb, 0x6d, 0x16, 0xbd, 0x16, 0x7f, 0x94, 0xbc, 0x56, 0x27, 0x13, 0x3e,
  0xb5, 0x2d, 0x86, 0xbd, 0x73, 0xe0, 0x59, 0xbd, 0xfe, 0x4c, 0x11, 0x3d,
  0xcf, 0x21, 0x3c, 0xbe, 0xda, 0x94, 0x93, 0xbd, 0x56, 0xac, 0x58, 0xbe,
  0x10, 0x02, 0x0b, 0xbf, 0x95, 0xe0, 0x1a, 0xbe, 0xc1, 0xd2, 0xdd, 0xbc,
  0xe4, 0xca, 0x06, 0xbd, 0x19, 0xef, 0xe5, 0xbd, 0xd6, 0x4f, 0x96, 0x3e,
  0xbf, 0xb0, 0x06, 0xbd, 0x9a, 0xac, 0x35, 0xbe, 0x3d, 0x98, 0x11, 0xbe,
  0x63, 0x58, 0x1d, 0x3e, 0x6b, 0xde, 0xfe, 0x3d, 0x58, 0x71, 0x33, 0xbe,
  0xbe, 0x4d, 0x5e, 0x3e, 0x7b, 0x92, 0x14, 0xbe, 0x06, 0xfc, 0x58, 0xbd,
  0xeb, 0xac, 0xcb, 0x3d, 0x7d, 0x88, 0xb0, 0xbe, 0x18, 0xab, 0xeb, 0x3d,
  0xf0, 0x90, 0x4f, 0xbd, 0xc2, 0xd0, 0x51, 0x3e, 0x9f, 0x6f, 0xdf, 0xbd,
  0xa0, 0xc0, 0xc1, 0x3e, 0x5a, 0xf0, 0x99, 0x3d, 0xa4, 0x0c, 0x28, 0xbe,
  0xe8, 0x15, 0x1a, 0xbe, 0x55, 0x68, 0xfa, 0x3d, 0x6a, 0xe9, 0x05, 0xbd,
  0xf1, 0xb5, 0x9d, 0xbe, 0xc8, 0x06, 0x72, 0xbd, 0x3f, 0x81, 0xa2, 0x3d,
  0x75, 0xd6, 0x70, 0x3d, 0x10, 0xec, 0x95, 0xbd, 0xb5, 0xe5, 0xff, 0xbd,
  0x16, 0x97, 0x96, 0x3d, 0xe8, 0x2d, 0x79, 0x3d, 0x37, 0x29, 0xd3, 0x3d,
  0x67, 0xba, 0x3c, 0xbd, 0xba, 0xdf, 0x74, 0x3c, 0x18, 0xf8, 0x60, 0x3d,
  0x03, 0x49, 0xe6, 0xbd, 0x3e, 0x5c, 0x63, 0xbe, 0x0d, 0x0f, 0x1a, 0x3e,
  0x72, 0xd3, 0x3c, 0xbd, 0x5f, 0xd1, 0xfc, 0xbc, 0x57, 0xa9, 0x4e, 0xbd,
  0x46, 0x7a, 0xec, 0x3c, 0x53, 0x8d, 0x06, 0xbe, 0x40, 0xa0, 0x91, 0xbe,
  0x54, 0xff, 0x39, 0xbe, 0x0b, 0x57, 0x60, 0x3d, 0x9e, 0xec, 0xb0, 0x3d,
  0x54, 0x1f, 0x52, 0x3e, 0x84, 0x50, 0x7b, 0xbd, 0x8f, 0xc9, 0xca, 0xbd,
  0x87, 0xe3, 0x31, 0xbe, 0xbd, 0x39, 0x7b, 0xbe, 0xe4, 0x0a, 0x09, 0xbe,
  0x23, 0x96, 0x33, 0x3e, 0x96, 0xdd, 0xe4, 0x3d, 0xe0, 0xad, 0x3f, 0x3d,
  0xf6, 0x8b, 0x54, 0x3e, 0x9f, 0x4e, 0x88, 0xbd, 0x14, 0x0c, 0xbc, 0xbd,
  0xac, 0x00, 0x72, 0x3e, 0x6c, 0xc4, 0xab, 0xbc, 0xc3, 0x90, 0x8b, 0x3b,
  0x2b, 0xd6, 0x54, 0xbe, 0xbd, 0xd7, 0x4e, 0xba, 0xbc, 0x6e, 0x55, 0x3c,
  0x27, 0x47, 0x93, 0x3e, 0xd4, 0xb5, 0x7c, 0xbe, 0x94, 0xe4, 0x7c, 0xbe,
  0x76, 0x55, 0x5f, 0xbd, 0xbd, 0x5e, 0x26, 0xbd, 0x81, 0x0f, 0x39, 0xbe,
  0x09, 0xcd, 0x01, 0xbd, 0x3c, 0x3b, 0xa2, 0xbd, 0xbd, 0xc9, 0xe5, 0xbd,
  0xd8, 0xd4, 0xa5, 0xbd, 0xd0, 0x4f, 0x3a, 0xbe, 0xe9, 0x47, 0xed, 0x3d,
  0xb9, 0xfb, 0x67, 0xbe, 0x6e, 0xc5, 0x16, 0x3d, 0x5c, 0x27, 0xbb, 0xbd,
  0x60, 0xf4, 0x7a, 0x3d, 0x54, 0x33, 0x50, 0xbe, 0x71, 0xd0, 0xb9, 0x3c,
  0xb1, 0x71, 0x13, 0x3e, 0x13, 0x96, 0x53, 0xbe, 0xd8, 0xa7, 0x58, 0xbd,
  0x4c, 0xda, 0xe6, 0xbd, 0x6f, 0x6d, 0x52, 0xbe, 0x92, 0x30, 0xa1, 0xbe,
  0x18, 0x71, 0x2a, 0xbe, 0xf7, 0x37, 0x83, 0xbe, 0x22, 0x49, 0x83, 0xbe,
  0xdb, 0x1f, 0x37, 0xbe, 0x41, 0x28, 0x16, 0xbe, 0x25, 0x67, 0x30, 0xbe,
  0x20, 0xe0, 0x76, 0xbe, 0x31, 0x69, 0xec, 0x3d, 0xc7, 0xbe, 0x44, 0x3d,
  0x9a, 0xfd, 0x20, 0xbe, 0xb5, 0xa8, 0xbe, 0xbd, 0xbd, 0x26, 0x26, 0xbe,
  0x33, 0x93, 0xae, 0xbc, 0x4e, 0xe1, 0x85, 0xbd, 0x87, 0x07, 0x28, 0x3d,
  0xb1, 0x19, 0xac, 0xbb, 0x05, 0x60, 0xe7, 0x3d, 0x2c, 0x3a, 0xb2, 0xbd,
  0xf2, 0x74, 0x5a, 0x3d, 0xba, 0xa3, 0x89, 0xbd, 0x95, 0x72, 0x9b, 0x3d,
  0xc9, 0x18, 0x6f, 0xbe, 0x0e, 0xbe, 0xfa, 0x3d, 0x9a, 0x5f, 0x12, 0xbe,
  0x5f, 0xdf, 0x23, 0xbe, 0xbc, 0x44, 0xaf, 0xbc, 0xae, 0x15, 0x78, 0xbe,
  0xb4, 0x6c, 0xcd, 0x3c, 0xa5, 0x3d, 0x26, 0xbe, 0x47, 0x3e, 0x1d, 0xbe,
  0x36, 0xec, 0x45, 0x3d, 0x1b, 0x7f, 0x18, 0xbe, 0xb0, 0xbe, 0x3c, 0xbe,
  0xff, 0xa9, 0xf1, 0xbd, 0x7c, 0x29, 0xd5, 0x3d, 0x99, 0x2c, 0x69, 0xbe,
  0x10, 0x38, 0xa5, 0x3c, 0x6c, 0xef, 0x67, 0xbe, 0x68, 0x71, 0x4d, 0x3d,
  0x6e, 0x49, 0x7f, 0xbb, 0x05, 0xd9, 0xcf, 0x3d, 0xb9, 0x72, 0xb7, 0x3d,
  0x75, 0xde, 0x0a, 0x3e, 0xc2, 0x60, 0xf7, 0xbb, 0x89, 0xb2, 0xac, 0xbd,
  0xdd, 0x53, 0x95, 0xbe, 0x2a, 0xec, 0x98, 0xbe, 0x3d, 0x66, 0x67, 0xbe,
  0x16, 0x89, 0xf5, 0x3d, 0x8e, 0xee, 0x3b, 0x3d, 0xeb, 0xe3, 0x06, 0x3e,
  0x64, 0x9a, 0x78, 0xbe, 0x64, 0x6a, 0x59, 0xbc, 0xd6, 0x08, 0x25, 0xbd,
  0x70, 0xe5, 0x41, 0x3e, 0x21, 0x0f, 0xdb, 0xbd, 0x5b, 0x5c, 0x34, 0xbd,
  0xb2, 0xdc, 0xb5, 0xbe, 0x0b, 0x81, 0x71, 0xbe, 0x7a, 0x13, 0x0e, 0x3c,
  0xde, 0xb1, 0xdb, 0xbc, 0xd1, 0x8e, 0x09, 0xbf, 0x4e, 0xed, 0x24, 0x3e,
  0x5b, 0x4b, 0x69, 0xbd, 0x8b, 0xd4, 0x65, 0xbd, 0xf2, 0xd4, 0xd0, 0xbe,
  0x3a, 0xd3, 0xa3, 0xbe, 0xb8, 0xb6, 0x92, 0xbe, 0xfc, 0x1a, 0x09, 0x3e,
  0x3d, 0x98, 0x20, 0xbe, 0xe3, 0x52, 0xaf, 0xbd, 0xe9, 0x7f, 0x94, 0xbe,
  0x67, 0x16, 0x36, 0xbe, 0x45, 0x21, 0x48, 0xbe, 0x22, 0xb8, 0xe6, 0xbe,
  0x66, 0xed, 0x0f, 0x3e, 0xca, 0xed, 0xde, 0xbc, 0xed, 0xaf, 0x2b, 0xbe,
  0x9c, 0x0b, 0x87, 0x3e, 0x1b, 0xc3, 0x3f, 0xbe, 0x40, 0x1d, 0x11, 0x3e,
  0x60, 0xdb, 0x49, 0xbd, 0x94, 0xa3, 0x3b, 0xbd, 0x40, 0x73, 0x07, 0xbe,
  0xfc, 0xc4, 0xbe, 0xbd, 0x91, 0x2a, 0x90, 0xbe, 0x39, 0xdc, 0x0c, 0x3e,
  0x6c, 0x6d, 0x90, 0xbe, 0x83, 0x8d, 0xbe, 0x3b, 0x29, 0xdd, 0x8a, 0xbe,
  0x8a, 0xc4, 0xa2, 0xbe, 0x3e, 0x00, 0x88, 0x3e, 0xad, 0x2c, 0xec, 0xbd,
  0x29, 0x1f, 0x60, 0xbe, 0xb2, 0xc0, 0xda, 0x3d, 0x28, 0xe6, 0xcd, 0x3d,
  0xcb, 0x0b, 0x65, 0xbd, 0xec, 0x65, 0x66, 0xbe, 0x21, 0x3f, 0xb9, 0x3d,
  0xde, 0x07, 0xfb, 0xbe, 0xee, 0xb8, 0x53, 0xbe, 0x98, 0x71, 0x1d, 0xbe,
  0x2d, 0x47, 0xbd, 0x3d, 0x2c, 0x27, 0x86, 0xbe, 0xb4, 0xbd, 0xc6, 0x3d,
  0xd8, 0x86, 0x6c, 0xbe, 0x43, 0x16, 0xdb, 0xbe, 0x9f, 0x03, 0x92, 0x3d,
  0xf9, 0x50, 0x07, 0xbf, 0xf6, 0xe6, 0x78, 0xbe, 0xc8, 0x77, 0xe3, 0x3b,
  0x08, 0x3d, 0x88, 0x3d, 0x8a, 0x44, 0xa6, 0xbd, 0x0d, 0x1e, 0x9b, 0xbe,
  0x7a, 0x5d, 0x24, 0xbe, 0x8b, 0x5b, 0x90, 0xbe, 0xcd, 0x36, 0x37, 0xbe,
  0x22, 0x8d, 0x15, 0xbd, 0x2c, 0x8a, 0x6a, 0xbe, 0x04, 0xab, 0xd5, 0xbe,
  0x2b, 0x8e, 0xeb, 0xbe, 0xb4, 0x95, 0x2c, 0xbe, 0xe5, 0xeb, 0x92, 0xbe,
  0x78, 0x1c, 0x4a, 0xbd, 0x31, 0x25, 0xe8, 0x3d, 0x9a, 0xb7, 0x12, 0x3d,
  0x0f, 0xe1, 0x2c, 0x3d, 0x96, 0x19, 0xb8, 0x3e, 0x2a, 0xf6, 0xa7, 0xbd,
  0xd1, 0xdb, 0x48, 0xbd, 0x14, 0x1c, 0x17, 0xbd, 0x9c, 0x6e, 0xa6, 0xbe,
  0xaf, 0x89, 0xcb, 0xbd, 0xa6, 0x58, 0x0b, 0xbe, 0x77, 0xd0, 0xb2, 0x3d,
  0x27, 0x3e, 0x11, 0xbe, 0x32, 0x5a, 0x0d, 0x3f, 0x11, 0x96, 0x27, 0x3d,
  0x94, 0x16, 0xe1, 0xbd, 0xe7, 0x77, 0x20, 0x3e, 0x85, 0x3c, 0x80, 0xbc,
  0x5f, 0x49, 0xd8, 0x3d, 0xcf, 0xa1, 0x80, 0x3e, 0xe5, 0x7c, 0x9b, 0x3e,
  0xca, 0x68, 0xf4, 0xbd, 0x8a, 0x01, 0xf6, 0xbd, 0x77, 0x99, 0x1e, 0x3e,
  0x44, 0x3a, 0x4b, 0xbe, 0xf9, 0x1f, 0x2e, 0x3d, 0xf6, 0x17, 0x7c, 0xbe,
  0x6d, 0xad, 0x7b, 0x3e, 0x73, 0xba, 0xcc, 0xbd, 0x88, 0x22, 0xac, 0x3e,
  0xce, 0x45, 0xb5, 0xbc, 0xbb, 0x6b, 0xf6, 0x3c, 0x9a, 0xc5, 0x9f, 0x3d,
  0xc6, 0x2c, 0x43, 0xbd, 0xf2, 0xa2, 0xac, 0xbd, 0x07, 0x7c, 0xbe, 0xbd,
  0xcd, 0x5d, 0x8a, 0x3e, 0x64, 0x48, 0x28, 0x3d, 0xb5, 0x65, 0xff, 0x3d,
  0xfb, 0xb8, 0x30, 0x3e, 0xb3, 0x37, 0xe0, 0xbc, 0xb5, 0x8f, 0x31, 0xbe,
  0xf9, 0xbd, 0xae, 0xbd, 0xbd, 0x3d, 0x83, 0xbc, 0x2a, 0x6c, 0xec, 0xbb,
  0x70, 0xa0, 0xd2, 0x3d, 0x3f, 0x1a, 0x15, 0x3e, 0x12, 0x15, 0xa6, 0xbe,
  0x3e, 0xd4, 0x82, 0xbe, 0x08, 0x43, 0x5d, 0xbe, 0x3f, 0xb6, 0x5a, 0xbe,
  0x9a, 0xb7, 0x04, 0x40, 0x93, 0x5c, 0x10, 0x3e, 0xf4, 0x18, 0x1c, 0xbb,
  0x17, 0x97, 0x71, 0xbe, 0x04, 0x79, 0xd0, 0xbd, 0x21, 0x91, 0x84, 0xbe,
  0x1c, 0xc1, 0x12, 0xbd, 0xe6, 0x95, 0x70, 0x3c, 0x0e, 0xfe, 0xcb, 0xbd,
  0x2d, 0xed, 0xd8, 0xbe, 0xfe, 0x2e, 0x61, 0xbe, 0xc6, 0x27, 0xd7, 0xbe,
  0x26, 0x51, 0x12, 0xbc, 0xe7, 0x20, 0x40, 0xbe, 0x7b, 0x26, 0x1c, 0xbe,
  0x65, 0x45, 0xe2, 0x3d, 0xb3, 0xec, 0xcb, 0x3f, 0x4e, 0x3e, 0xee, 0xbd,
  0xc1, 0x01, 0x85, 0xba, 0xd4, 0xb3, 0xb5, 0xbe, 0x8c, 0x13, 0x3c, 0xbe,
  0x27, 0xef, 0x98, 0xbe, 0x16, 0x5c, 0x32, 0x3e, 0x16, 0x87, 0x2e, 0x3b,
  0xfe, 0x50, 0x66, 0x3d, 0x28, 0x6b, 0x8b, 0xbe, 0x10, 0x9b, 0x5d, 0x3b,
  0x9a, 0x71, 0x5a, 0x3e, 0x02, 0x64, 0x0e, 0xbe, 0x03, 0x95, 0xbc, 0xbc,
  0x54, 0xbc, 0x0e, 0xbe, 0x49, 0x89, 0x84, 0x3c, 0x4a, 0x05, 0xdb, 0x3f,
  0x96, 0x6d, 0x4b, 0xbe, 0xab, 0xaf, 0xe8, 0xbb, 0xee, 0x83, 0xd1, 0xbd,
  0x29, 0x45, 0xd8, 0xbd, 0xe4, 0xa2, 0x69, 0xbc, 0xb1, 0x34, 0xdd, 0xbd,
  0x46, 0xa9, 0x2a, 0x3d, 0x95, 0x42, 0x15, 0x3e, 0xba, 0x90, 0x16, 0x3e,
  0x59, 0x78, 0x92, 0xbe, 0x8b, 0x73, 0xbf, 0xbc, 0x47, 0x7e, 0x6b, 0xbd,
  0x58, 0x78, 0x5b, 0xbe, 0xc5, 0x68, 0x3a, 0xbd, 0xdc, 0xa7, 0x3c, 0xbc,
  0xec, 0x88, 0x7f, 0x3f, 0x27, 0x5f, 0x22, 0xbe, 0x57, 0x7a, 0x84, 0x3d,
  0x3c, 0x77, 0x20, 0x3c, 0x8e, 0xc1, 0x1e, 0xbe, 0x2c, 0x02, 0x4f, 0x3e,
  0x0f, 0x33, 0x29, 0xbd, 0x08, 0xe2, 0x25, 0xbd, 0x2a, 0x17, 0x20, 0xbe,
  0x79, 0xfe, 0x56, 0x3e, 0xbf, 0x5d, 0x0a, 0x3e, 0x06, 0xf1, 0x04, 0xbc,
  0x7c, 0x0a, 0xfe, 0xbd, 0xc7, 0xac, 0x3b, 0xbe, 0x05, 0xa8, 0xe9, 0xbe,
  0xc4, 0xd1, 0x61, 0x3d, 0xb7, 0x65, 0xcd, 0x3f, 0xd7, 0xf3, 0x49, 0xbe,
  0xe7, 0x6a, 0xc8, 0xbb, 0xeb, 0x01, 0x7b, 0x3b, 0x5b, 0x13, 0x54, 0xbd,
  0xfd, 0x0e, 0x91, 0x3e, 0xac, 0xf6, 0x10, 0xbe, 0x80, 0xdb, 0xfc, 0xbc,
  0xb8, 0x24, 0xcb, 0xbe, 0xcb, 0x65, 0x32, 0x3e, 0x02, 0xe4, 0xa7, 0xbe,
  0x55, 0x8a, 0x13, 0xbd, 0x10, 0x06, 0x61, 0xbd, 0xd9, 0x0c, 0xa2, 0xbe,
  0x2b, 0xe8, 0xb9, 0xbe, 0x2a, 0xcf, 0xc5, 0x3d, 0x8b, 0xf5, 0xff, 0x3e,
  0xe6, 0xe8, 0x42, 0xbe, 0x80, 0xc6, 0x85, 0x3d, 0x3d, 0x0a, 0x02, 0x3d,
  0x62, 0x4a, 0xbd, 0xbe, 0x79, 0x90, 0x7f, 0x3e, 0x84, 0x84, 0xf0, 0x3d,
  0xaa, 0xb9, 0x67, 0xbd, 0xef, 0xf6, 0xb7, 0xbe, 0x40, 0xca, 0x5d, 0x3e,
  0x21, 0xa8, 0xae, 0xbe, 0x4b, 0x10, 0xa4, 0x3d, 0x28, 0x6b, 0xa4, 0xbe,
  0x06, 0xe1, 0x9e, 0xbd, 0xb5, 0x15, 0x00, 0xbe, 0x23, 0x1f, 0x04, 0x3d,
  0xe5, 0x18, 0x4e, 0xbe, 0xfa, 0x19, 0xa7, 0xbe, 0xe0, 0xd2, 0x5f, 0x3e,
  0xf4, 0x1a, 0xa9, 0x3d, 0xc5, 0x9a, 0x8c, 0xbe, 0x51, 0xdf, 0x80, 0x3d,
  0xea, 0xac, 0x13, 0x3e, 0x27, 0xc6, 0xd0, 0xbd, 0x1c, 0xc3, 0x8e, 0xbe,
  0x7e, 0x4a, 0x8c, 0x3d, 0xb0, 0x3c, 0x5c, 0xbe, 0xd5, 0xb8, 0xc5, 0x3d,
  0xf3, 0x0a, 0xe7, 0xbe, 0xba, 0xd2, 0x80, 0x3c, 0x51, 0x8f, 0x06, 0xbe,
  0xc1, 0x8e, 0x54, 0xbe, 0x70, 0x2e, 0x0d, 0xbe, 0xed, 0xfd, 0x13, 0xbd,
  0xb6, 0x84, 0x1a, 0x3e, 0xaf, 0xb1, 0x1d, 0xbe, 0x1b, 0x8f, 0xb7, 0x3b,
  0x8d, 0xb0, 0x42, 0xbe, 0xf8, 0x1e, 0x48, 0xbe, 0x11, 0x1f, 0x35, 0xbe,
  0x96, 0x9f, 0xfe, 0xbd, 0x98, 0x79, 0x14, 0x3c, 0xbd, 0xe3, 0x46, 0x3d,
  0xaa, 0x1d, 0x29, 0xbe, 0x8b, 0x17, 0x2a, 0xbe, 0x08, 0xca, 0xc4, 0x3e,
  0x7a, 0x21, 0x4e, 0xbe, 0x05, 0x01, 0x6a, 0x3d, 0x68, 0x91, 0x4b, 0xbd,
  0x6e, 0xc2, 0x6b, 0x3d, 0x74, 0x45, 0x38, 0x3e, 0x3c, 0x76, 0x4f, 0xbe,
  0x3c, 0x60, 0x48, 0x3e, 0x9e, 0x79, 0xe0, 0xbe, 0x2f, 0xdc, 0xc8, 0x3c,
  0x61, 0x22, 0x52, 0x3d, 0x06, 0x39, 0x07, 0xbc, 0x3e, 0xbe, 0xff, 0x3d,
  0xfc, 0xc7, 0x26, 0x3e, 0xdb, 0x88, 0x44, 0xbd, 0x13, 0xda, 0x37, 0xbe,
  0x73, 0xf5, 0x0a, 0x3e, 0xfa, 0xa2, 0x15, 0xbe, 0x2e, 0xec, 0x12, 0x3e,
  0xd3, 0x49, 0x14, 0xbd, 0x80, 0x5a, 0x80, 0x3e, 0xcf, 0x62, 0x27, 0x3e,
  0xaf, 0x01, 0x58, 0xbd, 0x6b, 0x3a, 0x7f, 0x3b, 0x99, 0xad, 0x96, 0xbe,
  0x0a, 0x06, 0x0c, 0x3e, 0x97, 0x00, 0x4a, 0x3e, 0x49, 0xb3, 0x22, 0xbd,
  0xa2, 0x96, 0x21, 0x3c, 0x27, 0x13, 0x8c, 0x3b, 0x5a, 0x71, 0xdb, 0xbd,
  0xcc, 0x84, 0x6d, 0xbd, 0x0c, 0x29, 0xac, 0x3e, 0xb7, 0x17, 0x02, 0xbd,
  0x8c, 0x74, 0xc0, 0x3c, 0xb5, 0x61, 0x07, 0xbe, 0xd7, 0x8c, 0xe7, 0x3d,
  0xdd, 0x2f, 0x80, 0x3c, 0xf0, 0x4c, 0x91, 0xbd, 0xff, 0x05, 0x74, 0x3e,
  0xc0, 0x1f, 0xa6, 0xbe, 0x11, 0x57, 0x36, 0xbe, 0x17, 0x76, 0xa3, 0xbd,
  0xef, 0x2f, 0x2a, 0xbe, 0x48, 0xf6, 0x13, 0x3d, 0x20, 0x0b, 0x73, 0xbd,
  0xe7, 0x44, 0xda, 0xbd, 0xb2, 0xb8, 0x0e, 0xbc, 0x4d, 0xff, 0xb0, 0x3e,
  0xef, 0xae, 0x62, 0xbe, 0xeb, 0x38, 0x8c, 0x3c, 0xb9, 0x78, 0x77, 0x3c,
  0x22, 0x95, 0xd5, 0xbc, 0x63, 0x76, 0x2c, 0x3e, 0x16, 0x6a, 0x1d, 0xbe,
  0x50, 0x75, 0x0f, 0x3e, 0x2a, 0x10, 0x28, 0xbe, 0xd4, 0x85, 0x3e, 0xbc,
  0x97, 0xcb, 0x4c, 0x3c, 0x10, 0x26, 0x25, 0x3d, 0xa1, 0x67, 0x0b, 0x3e,
  0xbc, 0x8f, 0x1b, 0xbd, 0x53, 0x67, 0xf5, 0xbd, 0xa9, 0xcc, 0x04, 0x3e,
  0x74, 0xf5, 0x17, 0x3f, 0x5e, 0xd4, 0x61, 0xbd, 0xc2, 0xec, 0x87, 0x3d,
  0xa2, 0xc6, 0x8e, 0xbd, 0xeb, 0x9e, 0x88, 0xbc, 0x59, 0x16, 0x53, 0xbe,
  0xbd, 0x26, 0x90, 0xbd, 0xe2, 0xd9, 0xa7, 0x3d, 0x3e, 0xa3, 0x79, 0xbd,
  0x57, 0x07, 0xec, 0x3d, 0x09, 0xf6, 0x7f, 0xbd, 0x74, 0x58, 0x2f, 0xbd,
  0x0e, 0xdd, 0x4b, 0xbd, 0xb2, 0x32, 0x0e, 0x3d, 0x6e, 0xf4, 0x79, 0xbd,
  0x3c, 0x61, 0xb0, 0xbc, 0x5d, 0xf8, 0xd3, 0x3e, 0x39, 0x2f, 0x03, 0xbe,
  0x5b, 0x5f, 0xea, 0x3c, 0xc0, 0x1e, 0x44, 0x3e, 0x89, 0x57, 0x1b, 0xbe,
  0xec, 0xed, 0x04, 0x3c, 0x22, 0xf4, 0x2e, 0xbe, 0x2c, 0x5d, 0xfa, 0xbc,
  0x45, 0x17, 0x37, 0xbe, 0x95, 0xdd, 0x77, 0xbd, 0x96, 0xeb, 0xd4, 0xbd,
  0x1e, 0x1e, 0x34, 0xbe, 0xc2, 0x84, 0x95, 0xbc, 0x2a, 0xb5, 0xfd, 0x3c,
  0x17, 0x89, 0xf7, 0xbc, 0xe7, 0x22, 0x00, 0xbd, 0xe9, 0xe7, 0xa4, 0x3e,
  0xb8, 0x5b, 0x13, 0x3d, 0xbb, 0xfb, 0xea, 0x3d, 0x35, 0x54, 0x5f, 0x3e,
  0x1c, 0xe6, 0x85, 0x3d, 0xcb, 0x7f, 0x19, 0x3d, 0xa8, 0x27, 0xa7, 0x3b,
  0x7c, 0x4f, 0x0d, 0x3e, 0x7e, 0x8c, 0xf4, 0xbd, 0x57, 0x34, 0x2e, 0x3d,
  0x8e, 0x19, 0x50, 0xbc, 0xbe, 0x44, 0x4b, 0xbc, 0x37, 0x89, 0x17, 0xbc,
  0x11, 0x64, 0x25, 0x3e, 0x87, 0xef, 0x92, 0x3d, 0xd9, 0x90, 0xb4, 0xbd,
  0x03, 0xae, 0xc3, 0xbd, 0xa1, 0xe5, 0x15, 0xbe, 0x05, 0xb6, 0x4d, 0xbd,
  0xb2, 0x77, 0x99, 0xbe, 0x62, 0xcd, 0x4f, 0x3e, 0xcf, 0x25, 0x4d, 0x3d,
  0xf9, 0xe0, 0xed, 0x3a, 0x2a, 0x39, 0x07, 0x3e, 0x53, 0x3d, 0x97, 0x3b,
  0xd2, 0xc3, 0x97, 0xbc, 0xf1, 0x85, 0x22, 0xbd, 0x88, 0xfa, 0x8b, 0xbd,
  0xdf, 0x0e, 0x9f, 0x3d, 0x3c, 0x02, 0xe2, 0xbc, 0x55, 0x0b, 0xe2, 0x3c,
  0x66, 0x4e, 0x52, 0xbe, 0x1b, 0x13, 0xd2, 0xbd, 0x6c, 0x5b, 0xe7, 0xbe,
  0xb1, 0x3b, 0xbf, 0xbe, 0xcf, 0xbe, 0x7d, 0xbd, 0x2b, 0xb2, 0xd0, 0xbd,
  0xda, 0xed, 0x45, 0xbc, 0x2d, 0x7e, 0x8e, 0xbd, 0xa5, 0xc4, 0xb7, 0xbe,
  0x47, 0x63, 0x69, 0xbe, 0xb9, 0x9a, 0xaa, 0x3d, 0xcd, 0xfd, 0xae, 0x3b,
  0x8e, 0x0a, 0x20, 0xbd, 0x76, 0xeb, 0x24, 0x3d, 0x1f, 0xea, 0xd4, 0xbc,
  0xae, 0xa9, 0xaa, 0xbe, 0x30, 0x88, 0x76, 0xbd, 0x2c, 0xb2, 0x9c, 0xbd,
  0xe3, 0xc8, 0xca, 0xbe, 0xea, 0x55, 0xba, 0xbe, 0xee, 0x78, 0xbc, 0x3e,
  0xe8, 0xa2, 0x6e, 0xbe, 0x09, 0x48, 0x33, 0x3e, 0x77, 0xfd, 0x9a, 0xbe,
  0x57, 0xbc, 0xbf, 0xbe, 0xb5, 0x9b, 0xa2, 0xbe, 0xcd, 0x0b, 0x61, 0xbe,
  0x8a, 0x34, 0x9b, 0xbd, 0x03, 0x39, 0x1e, 0xbd, 0xae, 0x6a, 0x4a, 0xbe,
  0xab, 0x3c, 0xa7, 0xbd, 0x72, 0x9e, 0x11, 0xbf, 0x1d, 0xdf, 0x5c, 0xbd,
  0x72, 0x38, 0x14, 0xbe, 0x82, 0xd4, 0xe1, 0x3c, 0x96, 0x95, 0x0f, 0xbe,
  0x0a, 0xd4, 0x55, 0x3e, 0x7a, 0xd2, 0xb0, 0xbd, 0x56, 0x8d, 0x35, 0x3e,
  0x3d, 0x3f, 0xc6, 0x3d, 0x3f, 0x5e, 0x9a, 0xbe, 0xa4, 0x0e, 0x1c, 0xbe,
  0x12, 0x41, 0x3c, 0x3e, 0xa9, 0xe3, 0x91, 0xbd, 0x71, 0xf9, 0x3e, 0x3e,
  0x69, 0x3b, 0xc0, 0xbd, 0x75, 0xa2, 0x2f, 0x3e, 0xa6, 0xd3, 0x1c, 0x3d,
  0xf0, 0xae, 0x07, 0xbe, 0x43, 0x1c, 0x88, 0xbe, 0x32, 0x94, 0xc4, 0x3e,
  0xbd, 0x70, 0x65, 0x3d, 0xb5, 0x51, 0xc8, 0x3d, 0x75, 0xd8, 0x8d, 0x3d,
  0x5a, 0x24, 0xcb, 0xbd, 0xe5, 0x8e, 0xf2, 0x3c, 0x61, 0xfa, 0x4a, 0x3e,
  0xc0, 0xa6, 0xb2, 0xbe, 0x70, 0x92, 0x89, 0xbd, 0x5e, 0x8d, 0x8f, 0xbd,
  0x77, 0x32, 0x88, 0x3d, 0x6f, 0x90, 0xd4, 0xbd, 0x88, 0x63, 0x55, 0x3e,
  0x36, 0xdd, 0xd1, 0x3d, 0x19, 0x7b, 0x38, 0xbe, 0xb9, 0xaa, 0x9e, 0xbe,
  0x03, 0x72, 0xc6, 0xbe, 0xaa, 0x56, 0x11, 0x3d, 0x20, 0x13, 0xea, 0x3d,
  0x4d, 0xb7, 0x1b, 0x3e, 0xc7, 0x69, 0xbd, 0x3d, 0x88, 0xe3, 0x83, 0xbd,
  0x2a, 0xfd, 0xc5, 0xbd, 0x57, 0xf3, 0x87, 0x3d, 0x70, 0x77, 0xc5, 0x3d,
  0xf9, 0x1e, 0x69, 0xbc, 0x85, 0xbb, 0xb6, 0xbe, 0xff, 0x28, 0x98, 0x3b,
  0xf6, 0x15, 0xb6, 0xbd, 0xc1, 0x64, 0x77, 0xbe, 0x97, 0xc5, 0x0f, 0xbe,
  0x1f, 0x78, 0x8e, 0xbe, 0xea, 0xf9, 0x60, 0x3e, 0x55, 0x30, 0x9d, 0xbe,
  0xbd, 0x3d, 0x21, 0xbe, 0x64, 0x4c, 0x48, 0xbe, 0x7b, 0xf3, 0x66, 0xbd,
  0xc7, 0x70, 0x1e, 0xbe, 0xbd, 0x73, 0x3b, 0x3e, 0x43, 0xef, 0x40, 0x3d,
  0x38, 0xfd, 0x1c, 0x3e, 0xdb, 0x5f, 0xc3, 0xbe, 0x47, 0xa5, 0x5b, 0x3e,
  0xa5, 0x8d, 0x80, 0xbd, 0x2b, 0x95, 0xf2, 0xbd, 0x70, 0x18, 0xa9, 0xbd,
  0xbb, 0xc7, 0x0a, 0x3d, 0x60, 0xe0, 0x91, 0x3e, 0xe2, 0x69, 0x9a, 0x3e,
  0x15, 0x37, 0x9f, 0xbd, 0x33, 0xe8, 0x6a, 0xbe, 0xb7, 0x26, 0xc2, 0xbd,
  0x09, 0xb3, 0x2b, 0xbe, 0xd4, 0xcb, 0x2b, 0xbe, 0xab, 0x24, 0x97, 0x3d,
  0x80, 0xbc, 0x1d, 0x3d, 0x0a, 0xf5, 0x43, 0x3c, 0x7d, 0xda, 0xd5, 0xbe,
  0x52, 0xe5, 0xc3, 0x3e, 0xe8, 0xf1, 0x28, 0xbe, 0xe0, 0xd1, 0x53, 0xbc,
  0xd5, 0xed, 0xa7, 0x3d, 0x52, 0x29, 0x5e, 0xbd, 0x8d, 0xc5, 0xa5, 0xbd,
  0xca, 0x2a, 0x72, 0x3e, 0x24, 0x6c, 0x8c, 0xbd, 0x0b, 0x29, 0xbc, 0x3d,
  0x80, 0x83, 0xee, 0xbd, 0x7c, 0xc7, 0xd8, 0x3b, 0xb6, 0xac, 0xad, 0xbb,
  0xed, 0x59, 0xa3, 0x3e, 0x15, 0xf5, 0xf0, 0x3d, 0x14, 0x20, 0x4b, 0xbd,
  0x26, 0x04, 0x3f, 0xbe, 0x30, 0x30, 0xab, 0x3e, 0xe5, 0xab, 0x10, 0x38,
  0xdc, 0x63, 0xb6, 0x3e, 0x37, 0x70, 0xe8, 0x3d, 0x23, 0xa2, 0x96, 0x3d,
  0x33, 0xac, 0x3b, 0x3e, 0xad, 0x66, 0xa6, 0x3e, 0x06, 0x2f, 0x57, 0xbe,
  0x83, 0xb1, 0x9b, 0x3e, 0xe8, 0x8d, 0x8e, 0xbd, 0xa5, 0xb1, 0x57, 0x3e,
  0xf6, 0x71, 0x61, 0x3d, 0x16, 0xda, 0xd6, 0x3d, 0x52, 0x7c, 0xd0, 0x3b,
  0x86, 0x03, 0xfa, 0x3b, 0x3b, 0xbf, 0xab, 0xbe, 0x56, 0x70, 0xa0, 0x3e,
  0xde, 0x67, 0x61, 0xbd, 0xcb, 0xc0, 0xa7, 0x3c, 0x94, 0xe3, 0x52, 0x3e,
  0xf5, 0x04, 0xd9, 0x3d, 0x55, 0xc8, 0x5e, 0x3e, 0x60, 0xa0, 0x4e, 0x3e,
  0x0a, 0x25, 0xf1, 0xbd, 0x90, 0x0d, 0x64, 0xbe, 0xb9, 0xfe, 0x7b, 0xbd,
  0x36, 0x8c, 0xa8, 0xbd, 0x3c, 0x80, 0x1d, 0x3d, 0x5c, 0x4d, 0x3f, 0x3e,
  0xae, 0x4b, 0xe6, 0x3d, 0xfb, 0x0e, 0x86, 0x3c, 0xca, 0x16, 0x3b, 0xbf,
  0x9e, 0x86, 0x25, 0x3e, 0x89, 0x5b, 0x99, 0xbd, 0x8a, 0xf8, 0xf6, 0xbd,
  0x16, 0xc5, 0xbd, 0xbb, 0x76, 0x54, 0xb4, 0xbc, 0x66, 0xa8, 0x21, 0x3d,
  0xc4, 0xc5, 0x0c, 0x3e, 0xe2, 0x84, 0x70, 0xbe, 0x71, 0xae, 0xe4, 0xbc,
  0x5d, 0x15, 0x36, 0xbe, 0x7a, 0xd2, 0x20, 0x3e, 0xee, 0xb7, 0xd3, 0x3c,
  0xa8, 0xe3, 0x06, 0x3e, 0xd9, 0xa4, 0xf1, 0x3d, 0x0f, 0x2e, 0xfb, 0x3d,
  0x00, 0x03, 0xd5, 0xbe, 0xda, 0x1f, 0x4a, 0x3e, 0xf2, 0x47, 0x66, 0xbe,
  0x2d, 0x8b, 0xc1, 0xbd, 0xcc, 0x10, 0xb0, 0xbd, 0xa0, 0x12, 0x1b, 0xbd,
  0x5b, 0x86, 0x02, 0x3f, 0x0d, 0xc4, 0x07, 0x3d, 0x6e, 0x34, 0x0b, 0xbe,
  0xce, 0x2a, 0x8f, 0xbe, 0x02, 0x86, 0x49, 0xbd, 0xfe, 0x2d, 0x9d, 0xbd,
  0xc7, 0x11, 0x0d, 0xbe, 0xee, 0x0d, 0x0a, 0x3e, 0x63, 0x54, 0x91, 0xbd,
  0x0e, 0x07, 0x25, 0x3d, 0x61, 0x02, 0xd9, 0xbe, 0x40, 0x6d, 0x78, 0x3e,
  0xdb, 0xef, 0x7d, 0xbe, 0x47, 0xf3, 0x80, 0xbc, 0xad, 0x24, 0x6e, 0xbe,
  0xdd, 0x4b, 0x1e, 0x3e, 0x14, 0x33, 0x46, 0xbe, 0x61, 0x79, 0x7f, 0xbe,
  0x7a, 0xd7, 0xa2, 0xbe, 0x2c, 0xa1, 0xcf, 0xbd, 0xc0, 0x6b, 0xd5, 0xbc,
  0x70, 0x25, 0x61, 0x3d, 0x33, 0x91, 0x90, 0xbe, 0xd8, 0xf5, 0xf0, 0xbb,
  0x34, 0xf7, 0x2e, 0xbd, 0xc6, 0xfb, 0xa7, 0x3d, 0x65, 0x2f, 0x15, 0xbe,
  0x3f, 0x8d, 0x55, 0x3c, 0x64, 0x67, 0x09, 0xbe, 0x6d, 0x5d, 0x0a, 0x3c,
  0x4b, 0x3a, 0xf8, 0xbd, 0xe0, 0x9f, 0xfb, 0xbd, 0x22, 0x08, 0x8e, 0x3d,
  0x97, 0x8e, 0x74, 0x3c, 0xcc, 0xc8, 0xfc, 0xbd, 0xb5, 0x61, 0x37, 0xbb,
  0x4b, 0x92, 0x28, 0xbe, 0x18, 0xc6, 0x18, 0xbe, 0x6d, 0xb7, 0x4f, 0xbb,
  0xf3, 0xe2, 0xe8, 0xbb, 0xee, 0xe0, 0x0f, 0xbd, 0x72, 0x1b, 0x22, 0x3c,
  0xdb, 0x05, 0xcd, 0xbd, 0xe8, 0x3d, 0x29, 0xbe, 0x8f, 0xa4, 0x09, 0xbe,
  0x59, 0xbd, 0x8d, 0xbe, 0xda, 0x59, 0x22, 0x3c, 0xe2, 0xea, 0xaa, 0x3c,
  0x37, 0xec, 0x18, 0xbe, 0x73, 0xe7, 0x96, 0xbe, 0xc5, 0x51, 0x33, 0xbe,
  0xc9, 0xb2, 0x03, 0x3d, 0x79, 0xbd, 0xc5, 0xbd, 0xf9, 0x39, 0xf8, 0xbd,
  0xe9, 0xc3, 0x88, 0xbe, 0xd5, 0x8b, 0xfa, 0xbd, 0x64, 0x4e, 0xf5, 0xbb,
  0x6d, 0xf8, 0x73, 0xbe, 0x11, 0xd6, 0x6e, 0xbd, 0xac, 0x4d, 0x31, 0xbc,
  0xd7, 0xdc, 0x47, 0x3d, 0x36, 0x72, 0x00, 0x3d, 0x4d, 0x04, 0xd3, 0x3d,
  0x5c, 0x62, 0x0b, 0xbe, 0xcf, 0x52, 0x42, 0xbe, 0x8e, 0x39, 0x85, 0x3d,
  0xa5, 0xf7, 0x0b, 0xbc, 0x0e, 0x5b, 0x2c, 0xbe, 0xb9, 0x8c, 0x0d, 0xbe,
  0x6f, 0xb6, 0x80, 0xbd, 0x11, 0xa2, 0xb2, 0xbd, 0x40, 0x0d, 0x06, 0xbe,
  0x08, 0x65, 0xa6, 0x3b, 0x40, 0x1d, 0xb4, 0x3d, 0xf4, 0xdd, 0xea, 0xbd,
  0x9e, 0xe4, 0x08, 0xbc, 0x4d, 0x65, 0x6e, 0xbe, 0xaf, 0xdb, 0x81, 0x3c,
  0x43, 0xb9, 0xe3, 0xbd, 0x21, 0x39, 0x61, 0xbe, 0xaa, 0xf8, 0xdf, 0xbd,
  0x58, 0x43, 0xa6, 0xbd, 0xe6, 0xd3, 0x9c, 0xbe, 0xdf, 0xb2, 0xa8, 0xbd,
  0x04, 0xff, 0x68, 0x3d, 0xd1, 0x78, 0x18, 0xbe, 0xc1, 0x51, 0x98, 0x3c,
  0x04, 0x8b, 0xda, 0xbd, 0x42, 0x31, 0xcd, 0xbd, 0xfa, 0x51, 0x5c, 0xbe,
  0xdd, 0xb2, 0x47, 0xbd, 0x85, 0x35, 0x94, 0xbd, 0x26, 0xb9, 0x81, 0xbd,
  0x1c, 0x92, 0x4f, 0x3c, 0x24, 0x95, 0x2c, 0xbe, 0x39, 0xc7, 0x61, 0xbe,
  0x9e, 0xd3, 0xe1, 0x3c, 0x68, 0x54, 0x14, 0xbe, 0x13, 0x89, 0x87, 0xbe,
  0xec, 0x7f, 0x76, 0x3d, 0x61, 0xb3, 0xcc, 0x3b, 0x40, 0xa3, 0x25, 0x3d,
  0x93, 0x79, 0x40, 0x3d, 0x93, 0x1e, 0x12, 0x3e, 0x19, 0x4c, 0x87, 0xbc,
  0x8c, 0x7a, 0x85, 0x3d, 0xb6, 0x49, 0x90, 0xbd, 0xa4, 0x36, 0x95, 0x3e,
  0x77, 0x50, 0x8f, 0xbe, 0xcb, 0xdc, 0x1b, 0x3e, 0x90, 0xe0, 0x01, 0xbe,
  0x66, 0x48, 0x7d, 0xbd, 0x3f, 0x98, 0x37, 0x3e, 0x5c, 0xb7, 0xa1, 0xbe,
  0x9c, 0xcb, 0xa8, 0xbe, 0xe1, 0x07, 0x76, 0xbe, 0x97, 0xd7, 0xd3, 0x3d,
  0xcb, 0x45, 0x75, 0x3d, 0xdc, 0xc5, 0xfc, 0xb9, 0x99, 0xf5, 0xde, 0xbd,
  0x39, 0xb4, 0xfa, 0x3c, 0x3e, 0x0c, 0xcf, 0x3d, 0xae, 0x08, 0x3d, 0x3b,
  0x2e, 0xb7, 0x38, 0xbc, 0xc8, 0x2f, 0x70, 0xbe, 0xe2, 0x21, 0xcc, 0xbd,
  0x1c, 0x4a, 0x30, 0xbd, 0x7f, 0x2d, 0x61, 0xbe, 0x4a, 0xf3, 0x4a, 0xbd,
  0xd0, 0xae, 0x48, 0xbe, 0x16, 0x41, 0x86, 0x3d, 0x65, 0x09, 0xd0, 0x3f,
  0xa8, 0x78, 0xcf, 0xbe, 0x5d, 0xdb, 0x0b, 0xbd, 0x94, 0x22, 0x98, 0x3d,
  0x44, 0xbc, 0xd1, 0xbe, 0x80, 0xcd, 0x46, 0x3e, 0xa1, 0x4d, 0xf9, 0x3d,
  0x60, 0xb7, 0xd6, 0xbd, 0x51, 0x62, 0x39, 0xbe, 0xcc, 0x69, 0x89, 0x3d,
  0xc7, 0x30, 0x6d, 0xbe, 0xd3, 0xb3, 0xf5, 0x37, 0xc9, 0x53, 0x4a, 0xbe,
  0x21, 0xaa, 0x5f, 0xbe, 0x5c, 0x42, 0x38, 0xbe, 0xac, 0x02, 0xd3, 0xbc,
  0x84, 0xfd, 0x5a, 0x3f, 0xcd, 0x96, 0x88, 0xbd, 0x28, 0xb8, 0xa4, 0xbd,
  0x7f, 0x38, 0x6c, 0x3d, 0xe3, 0x51, 0x56, 0xbe, 0x87, 0x0e, 0x4b, 0x3c,
  0x2f, 0x21, 0x49, 0xbd, 0x1e, 0x40, 0xe7, 0xbc, 0x44, 0x9a, 0x0b, 0xbf,
  0xc8, 0x08, 0x22, 0xbd, 0xb0, 0x14, 0x19, 0x3e, 0x76, 0x70, 0x15, 0x3e,
  0xe6, 0xd5, 0x00, 0xbe, 0xcf, 0xd8, 0x17, 0xbd, 0x92, 0xf7, 0x70, 0xbe,
  0x57, 0xcf, 0x49, 0x3e, 0x23, 0x1a, 0xf8, 0x3f, 0x23, 0x70, 0x8b, 0x3e,
  0x9c, 0xab, 0x24, 0xbe, 0x7b, 0xf5, 0xd3, 0x3d, 0xbc, 0x0f, 0x90, 0xbd,
  0xf9, 0x42, 0xf8, 0x3d, 0x8c, 0x4d, 0x3f, 0xbd, 0x54, 0x45, 0xd2, 0xbd,
  0x6b, 0x66, 0xe0, 0xbe, 0xe9, 0xfa, 0x80, 0x3d, 0x4d, 0x3c, 0xfe, 0x3d,
  0xd7, 0x46, 0xd9, 0x3e, 0x39, 0xc9, 0x28, 0xbe, 0x4c, 0x04, 0xb5, 0xbd,
  0xa1, 0x5c, 0xa7, 0xbe, 0x7d, 0xd5, 0xad, 0x3e, 0x19, 0x8c, 0xf4, 0x3f,
  0x96, 0xba, 0x6a, 0x3e, 0xef, 0x16, 0x6e, 0x3c, 0xdc, 0x6e, 0x7c, 0x3d,
  0xb1, 0x08, 0x84, 0xbd, 0xe5, 0x71, 0x4e, 0xbe, 0xac, 0x11, 0x65, 0xbd,
  0x7b, 0x82, 0x1a, 0xbd, 0xfb, 0x21, 0xe7, 0xbe, 0x76, 0x21, 0x25, 0x3d,
  0x0b, 0xac, 0x72, 0xbe, 0xd4, 0x14, 0x96, 0x3e, 0x7b, 0x89, 0x18, 0xbe,
  0xd4, 0xd8, 0x9a, 0xbd, 0xa3, 0x67, 0xa6, 0xbe, 0x5d, 0x35, 0x04, 0x3e,
  0x50, 0xd5, 0xc1, 0x3f, 0xf4, 0x8e, 0x58, 0x3d, 0xa4, 0x76, 0xe5, 0xbd,
  0x20, 0xde, 0x2d, 0xbd, 0x47, 0x0e, 0x6d, 0xbd, 0xd3, 0x6d, 0x0c, 0x3e,
  0x8a, 0x7e, 0xfc, 0x3d, 0x00, 0xfd, 0x23, 0x3c, 0x20, 0x16, 0xa1, 0xbe,
  0xba, 0x53, 0xa5, 0x3e, 0x53, 0x98, 0x5a, 0xbe, 0x03, 0x96, 0xc1, 0x3e,
  0x2f, 0x05, 0x1b, 0xbd, 0xa6, 0x4b, 0x05, 0xb8, 0x28, 0x6b, 0x6e, 0xbe,
  0x15, 0x80, 0x68, 0xbe, 0x2d, 0x85, 0x8e, 0x3f, 0x42, 0xea, 0x37, 0xbe,
  0x3a, 0x7f, 0x71, 0x3d, 0x4b, 0xa3, 0x50, 0xbd, 0x55, 0xa2, 0x0e, 0xbe,
  0xa9, 0x59, 0x7d, 0x3e, 0xac, 0xf1, 0x32, 0xbd, 0x7f, 0x7c, 0xe4, 0x3c,
  0x74, 0xd3, 0x87, 0xbd, 0xd1, 0x96, 0x6f, 0xbd, 0x7e, 0x84, 0x30, 0xbe,
  0x46, 0x08, 0x09, 0x3e, 0xb9, 0xe4, 0x4c, 0x3d, 0x98, 0x38, 0xb2, 0xbd,
  0x26, 0x93, 0xe8, 0xbd, 0xde, 0xba, 0xb2, 0x3d, 0x36, 0x29, 0x31, 0x3d,
  0xae, 0xdf, 0x53, 0xbe, 0xd2, 0xe4, 0x44, 0xbd, 0x6a, 0x8d, 0xac, 0xbd,
  0x56, 0xad, 0x2f, 0xbc, 0xc1, 0x3a, 0x45, 0xbe, 0x7b, 0x51, 0x2f, 0x3e,
  0xd8, 0x95, 0x4b, 0x3d, 0xb4, 0xf8, 0x06, 0xbe, 0x65, 0x8b, 0xda, 0xbd,
  0x75, 0x0e, 0x4f, 0xbe, 0x42, 0x8b, 0x8b, 0x3d, 0xa0, 0x73, 0x01, 0x3e,
  0x5a, 0x64, 0x57, 0x3d, 0x77, 0xfa, 0xc5, 0x3e, 0x2a, 0x80, 0x0d, 0x3e,
  0x9b, 0xbf, 0xe7, 0x3b, 0xdd, 0xa2, 0x9a, 0x3e, 0x87, 0x2a, 0x57, 0x3d,
  0xd6, 0x64, 0x2e, 0x3d, 0x31, 0x6e, 0x7e, 0x3e, 0x41, 0xc7, 0xa6, 0xbe,
  0xff, 0x0c, 0x6f, 0xbd, 0x95, 0x2b, 0x13, 0x3c, 0x74, 0x2d, 0xb2, 0x3d,
  0xe4, 0x9a, 0x8d, 0xbe, 0x83, 0xce, 0xaa, 0x3e, 0x95, 0x4b, 0xfd, 0xbd,
  0x20, 0x07, 0xe9, 0xbd, 0xec, 0x7c, 0xc4, 0xbd, 0xdd, 0x7a, 0x96, 0xbe,
  0xa3, 0x39, 0x25, 0x3e, 0x94, 0x20, 0xf4, 0xbd, 0xa8, 0xe1, 0x65, 0x3e,
  0x75, 0x19, 0x1c, 0xbd, 0x28, 0x33, 0xdf, 0xbd, 0x3a, 0xf5, 0x54, 0x3d,
  0x1a, 0x7d, 0xc1, 0xbc, 0x81, 0x38, 0x22, 0x3d, 0xbb, 0x1f, 0x03, 0x3c,
  0x8f, 0xc3, 0x6a, 0xbe, 0x80, 0x79, 0x93, 0x3d, 0x39, 0x63, 0x06, 0xbe,
  0xef, 0x2b, 0x76, 0xbd, 0x90, 0x46, 0xe9, 0x3c, 0x4d, 0x21, 0x8b, 0xbd,
  0xf0, 0x9a, 0x7e, 0xbe, 0x9a, 0x6a, 0xb8, 0xbd, 0xc1, 0xe2, 0xb8, 0x3d,
  0xb7, 0xd3, 0x90, 0xbd, 0x39, 0xbc, 0x56, 0xbc, 0x01, 0x3b, 0x84, 0xbe,
  0xcb, 0x38, 0x74, 0xbe, 0x42, 0x84, 0x44, 0xbd, 0x31, 0x57, 0x1f, 0xbe,
  0x54, 0x50, 0xd5, 0xbc, 0xeb, 0xf3, 0xd5, 0xbd, 0xc1, 0xf9, 0x85, 0x3e,
  0x5e, 0xbf, 0x7f, 0xbe, 0xc5, 0x14, 0x11, 0xbf, 0x20, 0x38, 0xee, 0x3a,
  0xc5, 0x00, 0x27, 0xbd, 0x52, 0x71, 0x37, 0xbe, 0x1d, 0xd1, 0x90, 0xbe,
  0xfb, 0x06, 0x99, 0xbc, 0xe9, 0x41, 0x0a, 0xbe, 0x6e, 0xb2, 0x18, 0xbe,
  0x33, 0x14, 0x83, 0xbd, 0x22, 0x21, 0x13, 0xbe, 0xeb, 0xd3, 0xd4, 0xbd,
  0xe7, 0xcd, 0x9f, 0x3d, 0x85, 0xdf, 0x3f, 0xbc, 0x44, 0x4f, 0xe1, 0xbd,
  0xda, 0x43, 0xc3, 0xbd, 0xcc, 0x2b, 0xb5, 0xbd, 0x95, 0x87, 0x09, 0xbf,
  0x81, 0x7a, 0xd2, 0xbc, 0xf7, 0xde, 0x91, 0xbd, 0x8d, 0x11, 0xaf, 0xbe,
  0xb9, 0xca, 0xed, 0xbd, 0x8a, 0x4c, 0x52, 0xbc, 0xdc, 0xaf, 0x9f, 0xbe,
  0x51, 0x4f, 0x86, 0xbc, 0x70, 0x67, 0x2a, 0xbe, 0xbb, 0x97, 0x95, 0xbe,
  0xdc, 0x4f, 0x84, 0xbe, 0x71, 0x25, 0x99, 0x3d, 0xc7, 0x13, 0x8f, 0xbc,
  0xfb, 0x83, 0xb3, 0xbd, 0xf6, 0x06, 0x37, 0xbe, 0x61, 0x70, 0x22, 0xbd,
  0xbe, 0x3a, 0x8e, 0xbe, 0x9d, 0xfa, 0x86, 0xbd, 0xd2, 0x76, 0x97, 0x3d,
  0x72, 0x00, 0xef, 0x3d, 0x07, 0xe3, 0x8f, 0xbe, 0x94, 0xea, 0xca, 0x3d,
  0x13, 0x92, 0x5a, 0xbe, 0xbb, 0xe9, 0x2b, 0xbe, 0x97, 0x51, 0xfe, 0xbd,
  0x9c, 0x6a, 0x88, 0xbe, 0x0f, 0x78, 0x8a, 0xbe, 0xac, 0xdd, 0x5e, 0x3d,
  0xee, 0x54, 0x9c, 0xbd, 0xd4, 0xa5, 0x43, 0x3e, 0xaa, 0x44, 0x4b, 0xbe,
  0x48, 0x54, 0xf5, 0xbc, 0xda, 0xdb, 0xc1, 0xbd, 0xb5, 0xaf, 0xfc, 0x3c,
  0x4b, 0x29, 0x51, 0xbe, 0xe3, 0xc5, 0x16, 0x3e, 0x78, 0x58, 0xb9, 0xbd,
  0xd6, 0xf4, 0xdd, 0xbe, 0x38, 0x31, 0x52, 0xbe, 0x90, 0xe7, 0x6c, 0x3e,
  0x22, 0x8c, 0x1d, 0x3d, 0x92, 0xdd, 0xd3, 0x3d, 0xb1, 0x8f, 0x54, 0xbe,
  0xeb, 0xbc, 0xbc, 0xba, 0xa9, 0x4d, 0x4e, 0x3b, 0xdc, 0xa1, 0x76, 0x3e,
  0xc5, 0xc7, 0x27, 0xbe, 0x49, 0x94, 0x9a, 0x3d, 0x44, 0xf8, 0x70, 0x3e,
  0x28, 0x7c, 0x14, 0x3d, 0x6a, 0xff, 0xc3, 0xbe, 0xe7, 0x31, 0xae, 0xbe,
  0x8d, 0xcf, 0x35, 0x3e, 0xfc, 0xdd, 0x02, 0x40, 0x04, 0x74, 0x5d, 0xbe,
  0x74, 0x90, 0xea, 0xbd, 0xaa, 0x94, 0xd7, 0xbd, 0xc1, 0x1a, 0xd5, 0xbe,
  0x0a, 0xb1, 0x58, 0x3e, 0x81, 0xe0, 0x34, 0xbd, 0xad, 0x8a, 0x18, 0xbd,
  0xa5, 0x00, 0xf8, 0xbd, 0xdf, 0x0c, 0x5d, 0x3e, 0x25, 0xb5, 0x6f, 0xbe,
  0x8f, 0x55, 0x0a, 0xbd, 0x1f, 0x8a, 0x0d, 0xbe, 0x69, 0x93, 0xc6, 0xbe,
  0xf9, 0xc9, 0xc5, 0xbd, 0xbf, 0x5e, 0x0b, 0xbd, 0x6c, 0x4a, 0x8d, 0x3f,
  0x3d, 0xb2, 0x75, 0xbd, 0x6b, 0x16, 0xbe, 0xbd, 0x31, 0xc2, 0xb9, 0x3c,
  0xb6, 0x67, 0xae, 0xbd, 0x6b, 0xc8, 0x32, 0x3e, 0x1a, 0xe4, 0x88, 0x3c,
  0x3b, 0x3c, 0xca, 0xbc, 0x13, 0xf9, 0xd7, 0xbe, 0x1c, 0x40, 0x3a, 0xbd,
  0x40, 0xa0, 0x82, 0x3e, 0x91, 0x67, 0x8d, 0x3e, 0x72, 0x85, 0x57, 0xbe,
  0x3c, 0x51, 0x04, 0xbe, 0x49, 0xbd, 0x6a, 0xbd, 0xd8, 0xb0, 0x93, 0x3d,
  0x1a, 0x46, 0xe4, 0x3f, 0xcb, 0x2b, 0x88, 0x3e, 0x35, 0x06, 0xa4, 0xbd,
  0x0c, 0xa7, 0x96, 0x3d, 0x2e, 0xad, 0x39, 0xbe, 0xcf, 0xd4, 0xb3, 0xbb,
  0xa0, 0x0d, 0x97, 0x3d, 0xb2, 0x4f, 0xca, 0xbd, 0xb6, 0x81, 0x78, 0xbe,
  0x73, 0xac, 0x1b, 0xbe, 0xdb, 0xa0, 0x9d, 0x3d, 0x8e, 0x7a, 0xc3, 0x3e,
  0x3f, 0x6f, 0x55, 0xbe, 0xc3, 0x9a, 0x4a, 0xbe, 0x5e, 0x63, 0xd0, 0xbd,
  0x26, 0x62, 0x82, 0x3e, 0xef, 0xed, 0xf9, 0x3f, 0x99, 0xc9, 0xd3, 0x3d,
  0xae, 0x6d, 0xee, 0x3c, 0xf3, 0x71, 0xca, 0x3d, 0x2e, 0x0f, 0xa1, 0xbe,
  0x4c, 0x99, 0xd2, 0xbc, 0x2d, 0x76, 0xe7, 0x3d, 0xb4, 0x68, 0x5b, 0xbd,
  0xcd, 0xcd, 0xca, 0xbe, 0xfd, 0x52, 0xc0, 0x3a, 0xed, 0x93, 0x7a, 0x3c,
  0x0e, 0x3f, 0xae, 0x3e, 0xa9, 0xf7, 0xaa, 0xbd, 0x5a, 0x5b, 0x82, 0xbe,
  0x31, 0x84, 0x02, 0xbf, 0xad, 0x58, 0xd3, 0x3d, 0x97, 0xe3, 0xda, 0x3f,
  0x19, 0xea, 0x3a, 0xbd, 0xa9, 0x9f, 0x0e, 0xbe, 0x8a, 0x13, 0xe5, 0xbd,
  0x42, 0xea, 0xca, 0xbe, 0xde, 0xc0, 0x94, 0x3d, 0x8a, 0x26, 0x20, 0x3e,
  0xe8, 0x7d, 0x85, 0xba, 0x97, 0x7c, 0x56, 0xbf, 0x36, 0xfd, 0x8f, 0xbb,
  0x15, 0xca, 0xbe, 0xbe, 0x6b, 0x2d, 0xd1, 0x3d, 0x2b, 0xc0, 0x50, 0xbd,
  0x55, 0xdb, 0xf0, 0xbd, 0xa6, 0xbe, 0xc2, 0xbe, 0x1e, 0x54, 0x16, 0x3e,
  0x67, 0x76, 0x58, 0x3f, 0xb5, 0xa6, 0x49, 0xbe, 0xbf, 0x8f, 0x08, 0xbe,
  0xdd, 0xc3, 0x58, 0xbc, 0x34, 0x99, 0xb9, 0xbe, 0xf9, 0xb5, 0x49, 0x3d,
  0x9e, 0x97, 0xf2, 0xbd, 0x50, 0xfb, 0xfe, 0x3c, 0x48, 0xaf, 0x07, 0xbf,
  0xd7, 0xa2, 0x51, 0x3e, 0x44, 0xb0, 0x11, 0xbf, 0xdf, 0x16, 0xe6, 0x3d,
  0xe8, 0xcd, 0x86, 0xbc, 0xd0, 0x14, 0x76, 0xbe, 0xc2, 0xb4, 0x46, 0x3c,
  0xca, 0x74, 0xbd, 0x3d, 0xf7, 0x50, 0x82, 0xbd, 0x44, 0xb3, 0xb6, 0xbe,
  0xea, 0x22, 0x41, 0x3e, 0xb8, 0x8c, 0xb4, 0xbb, 0x70, 0x51, 0x6a, 0xbe,
  0x33, 0x45, 0x26, 0x3d, 0x4f, 0x9f, 0xe1, 0xbd, 0x6a, 0x0a, 0x80, 0xbd,
  0x08, 0x72, 0x0f, 0xbd, 0x3a, 0xe8, 0x64, 0x3d, 0x92, 0x59, 0x16, 0xbe,
  0x2c, 0x8f, 0x9a, 0x3d, 0xc4, 0x2f, 0xee, 0xbc, 0xb2, 0x2a, 0x60, 0x3d,
  0xe7, 0x56, 0x3e, 0xbe, 0xe1, 0xc8, 0xb3, 0x3d, 0xbc, 0x44, 0x7d, 0xbe,
  0xc3, 0xa3, 0x31, 0x3c, 0xb1, 0xe7, 0xb4, 0x3d, 0x45, 0xca, 0x3c, 0xbe,
  0x8e, 0x58, 0x94, 0x3c, 0x97, 0x58, 0xd5, 0xbd, 0x3b, 0x2a, 0x2b, 0xbd,
  0x0d, 0xb3, 0x54, 0xbe, 0x8c, 0x49, 0xe6, 0x3c, 0xda, 0xe6, 0x2b, 0x3c,
  0x03, 0x05, 0xcf, 0xbd, 0x04, 0xed, 0xc3, 0xbb, 0xed, 0xed, 0x30, 0xbe,
  0xc3, 0x58, 0x52, 0xbc, 0x0c, 0x95, 0xbf, 0x3d, 0xaf, 0xaa, 0xa3, 0x3b,
  0xea, 0x43, 0x56, 0xbe, 0x86, 0xf0, 0x56, 0xbd, 0xe8, 0xa6, 0x0d, 0xbd,
  0x0d, 0x9a, 0x76, 0xbe, 0x7d, 0x6b, 0x0d, 0x3e, 0xa9, 0x61, 0xd2, 0xbe,
  0xb0, 0xef, 0x0e, 0x3e, 0x44, 0x1f, 0x62, 0xbe, 0x57, 0x16, 0xbc, 0xbd,
  0x0b, 0xb8, 0xde, 0xbd, 0x52, 0x36, 0x3a, 0x3d, 0x1e, 0x4b, 0xac, 0x3c,
  0xce, 0xf8, 0xf5, 0x3d, 0x46, 0xf3, 0x38, 0x3e, 0x49, 0xe2, 0x35, 0x3d,
  0x2c, 0x3e, 0xca, 0x3d, 0x64, 0x48, 0xf3, 0x3d, 0x1a, 0x46, 0x31, 0xbe,
  0x05, 0x87, 0x4f, 0xbb, 0x54, 0xc3, 0x06, 0x3d, 0x1a, 0xf2, 0x44, 0xbe,
  0xb2, 0x97, 0x78, 0xbe, 0x12, 0x53, 0x1c, 0x3e, 0xa0, 0x65, 0x9d, 0xbe,
  0x06, 0xe6, 0x99, 0xbc, 0x1d, 0x3d, 0x4f, 0xbe, 0x47, 0xe1, 0x3b, 0x3d,
  0x17, 0x52, 0x8c, 0x3d, 0x24, 0x5c, 0x44, 0xbe, 0xaf, 0x34, 0x81, 0x3b,
  0x51, 0xc4, 0x08, 0x3e, 0x40, 0x92, 0xb4, 0xbd, 0xf0, 0x7b, 0xef, 0xbd,
  0x76, 0xb1, 0x1d, 0x3e, 0x4b, 0xcf, 0x11, 0xbe, 0xbe, 0x49, 0xb3, 0xbd,
  0xbf, 0xe6, 0x2c, 0xbe, 0x34, 0x2a, 0xe1, 0xbd, 0x77, 0xf4, 0x1a, 0x3e,
  0xef, 0x37, 0x4e, 0xbe, 0x8f, 0x41, 0xbd, 0x3d, 0x0d, 0x86, 0x0c, 0x3e,
  0xb2, 0x25, 0x58, 0xbe, 0xd7, 0x38, 0xdb, 0xbd, 0xcb, 0x38, 0x85, 0xbe,
  0xe8, 0x8e, 0xe2, 0x3d, 0xe8, 0x47, 0xe1, 0x3d, 0x61, 0xf3, 0x13, 0xbe,
  0x99, 0xc5, 0x3f, 0x3d, 0xb2, 0x1c, 0x0f, 0x3e, 0x26, 0x31, 0xc5, 0x3d,
  0xe1, 0x17, 0xe5, 0xbd, 0xb4, 0x67, 0x07, 0x3d, 0x10, 0x9a, 0x7e, 0xbe,
  0x34, 0xe3, 0x20, 0xbe, 0xeb, 0xf8, 0x1b, 0xbe, 0xf7, 0xe8, 0xc9, 0xbb,
  0x35, 0x57, 0x13, 0xbe, 0x17, 0x4a, 0x94, 0x3d, 0x0b, 0xc3, 0x73, 0xbe,
  0xd3, 0x46, 0x7c, 0xbe, 0x53, 0xc3, 0x67, 0xbd, 0x32, 0xc7, 0x70, 0x3d,
  0x20, 0xea, 0x18, 0x3d, 0x31, 0x8d, 0x0c, 0x3d, 0x5d, 0xc9, 0xe7, 0xbd,
  0x58, 0xab, 0x6d, 0xbd, 0xa0, 0x63, 0xfd, 0xbd, 0xcc, 0x8b, 0x62, 0xbe,
  0x40, 0x37, 0xa5, 0xbe, 0xff, 0xb2, 0x42, 0xbe, 0x48, 0x07, 0x1c, 0xbe,
  0xb2, 0xcb, 0x17, 0x3e, 0x10, 0x6e, 0x60, 0x3d, 0x7b, 0xe7, 0xd0, 0xbd,
  0xfd, 0x75, 0x30, 0xbd, 0x66, 0x08, 0x6c, 0xbe, 0xec, 0x7c, 0x27, 0xbe,
  0x12, 0x95, 0x64, 0xbe, 0x30, 0x70, 0xb1, 0xbd, 0xdb, 0xa9, 0x1c, 0x3d,
  0x19, 0xf6, 0xec, 0xba, 0xa6, 0x98, 0x82, 0xbd, 0x74, 0x8a, 0x03, 0xbd,
  0x36, 0xcb, 0x2c, 0xbe, 0x35, 0x37, 0x82, 0xbe, 0x21, 0x73, 0xb3, 0x3d,
  0xc0, 0xde, 0x8d, 0xbe, 0x1b, 0x79, 0x0f, 0xbe, 0xdb, 0x8c, 0x9c, 0x3d,
  0x01, 0x04, 0x69, 0xbe, 0xa9, 0x8e, 0x11, 0xbe, 0x8b, 0x55, 0xdf, 0xbc,
  0x7c, 0xd7, 0xd1, 0x3d, 0x90, 0x72, 0x1c, 0xbe, 0xe4, 0xab, 0x39, 0xbe,
  0xd3, 0xa0, 0x78, 0xbe, 0x3e, 0x95, 0xaf, 0x3d, 0xa4, 0x15, 0x1c, 0x3e,
  0xc1, 0xb3, 0xbc, 0xbe, 0x3b, 0x4d, 0x3e, 0x3d, 0xd3, 0xdd, 0xa6, 0xbe,
  0x90, 0x0b, 0x0c, 0xbd, 0x29, 0x4b, 0x2d, 0x3e, 0x57, 0x66, 0x15, 0xbe,
  0x52, 0x4d, 0x06, 0xbe, 0xa2, 0x14, 0x5b, 0xbd, 0x81, 0xe9, 0x24, 0xbe,
  0x2b, 0xc8, 0x8c, 0x3e, 0x43, 0x8c, 0x76, 0x3e, 0x4a, 0xd3, 0x35, 0x3d,
  0x02, 0xa5, 0x5b, 0x3e, 0xbb, 0x47, 0x3d, 0xbd, 0x54, 0x02, 0xd9, 0x3c,
  0xcd, 0xab, 0x22, 0x3e, 0xb9, 0x69, 0xe9, 0xbe, 0xf4, 0x50, 0x8f, 0x3c,
  0x1e, 0x7b, 0x8d, 0xbe, 0xc7, 0x26, 0x89, 0xbd, 0x6c, 0xc6, 0x23, 0x3c,
  0x9c, 0x54, 0xfe, 0xbb, 0x2a, 0x7a, 0xe7, 0x3c, 0xa3, 0x12, 0x39, 0x3d,
  0x48, 0x0f, 0xc0, 0xbd, 0xd2, 0x8c, 0x3c, 0x3d, 0xdf, 0xbb, 0x88, 0x3e,
  0xed, 0x90, 0x89, 0xbd, 0xb8, 0x60, 0xb9, 0x3d, 0xdb, 0x08, 0xcb, 0x3d,
  0xe9, 0xfc, 0x75, 0x3d, 0xbf, 0x48, 0x79, 0xb9, 0xf9, 0xbd, 0x71, 0xbe,
  0x35, 0x0a, 0x9e, 0x3e, 0x52, 0xc9, 0x2e, 0x3e, 0x5c, 0x05, 0xfd, 0x3d,
  0xf2, 0xb3, 0xef, 0xbd, 0xc8, 0x69, 0x4b, 0x3e, 0xe5, 0x01, 0xa8, 0x3e,
  0x25, 0xa9, 0xf0, 0x3d, 0xd0, 0x3d, 0x0e, 0xbe, 0xa6, 0x7a, 0x6e, 0x3e,
  0x59, 0x5b, 0x63, 0x3d, 0x1d, 0x85, 0xd7, 0xbc, 0x0e, 0x0b, 0x77, 0x3d,
  0xeb, 0x48, 0x09, 0xbe, 0x3d, 0xcd, 0x43, 0x3e, 0xc8, 0xcc, 0xbd, 0xbc,
  0x84, 0x65, 0xa3, 0xbe, 0x23, 0x50, 0xf8, 0x3e, 0xe3, 0x3e, 0xcd, 0x3d,
  0xa1, 0xc6, 0x19, 0xbe, 0x21, 0x0b, 0x57, 0x3d, 0xfd, 0x98, 0x61, 0x3e,
  0x82, 0x2f, 0x8f, 0x3e, 0xc5, 0xe1, 0x3e, 0x3e, 0x84, 0x6f, 0x2c, 0xbe,
  0x47, 0xc3, 0xce, 0x3d, 0xba, 0x76, 0xac, 0x3e, 0x62, 0x4d, 0x46, 0xbe,
  0xa5, 0xea, 0x98, 0x3d, 0x9b, 0xe6, 0x24, 0xbd, 0x7a, 0x05, 0x28, 0x3e,
  0x3e, 0xe6, 0x11, 0xbe, 0x80, 0x66, 0x7b, 0xbd, 0x39, 0xc1, 0x2e, 0x3d,
  0x1c, 0x6e, 0x81, 0xbd, 0x44, 0xf8, 0x33, 0xbd, 0x91, 0xbf, 0xa3, 0x3d,
  0xa1, 0x73, 0xb9, 0x3d, 0x45, 0xfc, 0x0b, 0x3e, 0x1f, 0xfb, 0x00, 0xbe,
  0x1a, 0x5c, 0xb5, 0xbd, 0x2c, 0x82, 0x75, 0x3d, 0x83, 0xb9, 0x10, 0x3f,
  0x85, 0x5e, 0x09, 0xbe, 0x46, 0x6d, 0x21, 0xbe, 0x70, 0xed, 0x4d, 0xbe,
  0xc9, 0x0b, 0x35, 0x3e, 0x5e, 0xe1, 0x0d, 0xbe, 0xae, 0x0f, 0xea, 0xbd,
  0x47, 0x9b, 0x1d, 0xbe, 0x39, 0xfd, 0x56, 0xbd, 0x29, 0x69, 0x87, 0x3d,
  0x79, 0x3e, 0x3c, 0x3c, 0xa4, 0x2b, 0x95, 0xbd, 0x89, 0x10, 0xc6, 0xbd,
  0x3a, 0xd9, 0x8a, 0xbc, 0x5f, 0x6b, 0xc9, 0xbe, 0x65, 0xbb, 0xb0, 0x3d,
  0xde, 0xe4, 0x90, 0x3d, 0x1e, 0x26, 0x14, 0xbe, 0x2d, 0x92, 0x88, 0xbe,
  0x40, 0x80, 0x50, 0x3d, 0x3b, 0x36, 0xd9, 0x3d, 0xf0, 0x7b, 0x8c, 0xbc,
  0x6c, 0xbc, 0x4f, 0xbe, 0x30, 0x13, 0x41, 0xbe, 0x6f, 0xd8, 0xaa, 0xbd,
  0x96, 0x98, 0xe5, 0x3d, 0x07, 0xd0, 0xe8, 0x3c, 0x50, 0x3b, 0xe4, 0xbc,
  0xd7, 0xb6, 0x81, 0x3d, 0x50, 0xf4, 0x61, 0xbd, 0x9b, 0x44, 0x7e, 0xbe,
  0xd5, 0xc6, 0x9c, 0x3e, 0xe2, 0xa0, 0xe3, 0x3d, 0x4a, 0xfe, 0xff, 0xff,
  0x10, 0x00, 0x00, 0x00, 0x05, 0x00, 0x00, 0x00, 0x14, 0x00, 0x00, 0x00,
  0x2c, 0x00, 0x00, 0x00, 0x02, 0x00, 0x00, 0x00, 0x10, 0x00, 0x00, 0x00,
  0x70, 0x00, 0x00, 0x00, 0x17, 0x00, 0x00, 0x00, 0x73, 0x65, 0x71, 0x75,
  0x65, 0x6e, 0x74, 0x69, 0x61, 0x6c, 0x2f, 0x64, 0x65, 0x6e, 0x73, 0x65,
  0x2f, 0x4d, 0x61, 0x74, 0x4d, 0x75, 0x6c, 0x00, 0x38, 0xfe, 0xff, 0xff,
  0x2e, 0xff, 0xff, 0xff, 0x04, 0x00, 0x00, 0x00, 0x08, 0x00, 0x00, 0x00,
  0xff, 0xff, 0xff, 0xff, 0x70, 0x00, 0x00, 0x00, 0x00, 0x00, 0x0e, 0x00,
  0x18, 0x00, 0x08, 0x00, 0x07, 0x00, 0x0c, 0x00, 0x10, 0x00, 0x14, 0x00,
  0x0e, 0x00, 0x00, 0x00, 0x00, 0x00, 0x00, 0x02, 0x10, 0x00, 0x00, 0x00,
  0x04, 0x00, 0x00, 0x00, 0x10, 0x00, 0x00, 0x00, 0x2c, 0x00, 0x00, 0x00,
  0x01, 0x00, 0x00, 0x00, 0x02, 0x00, 0x00, 0x00, 0x18, 0x00, 0x00, 0x00,
  0x73, 0x65, 0x71, 0x75, 0x65, 0x6e, 0x74, 0x69, 0x61, 0x6c, 0x2f, 0x66,
  0x6c, 0x61, 0x74, 0x74, 0x65, 0x6e, 0x2f, 0x43, 0x6f, 0x6e, 0x73, 0x74,
  0x00, 0x00, 0x00, 0x00, 0xa0, 0xfe, 0xff, 0xff, 0x96, 0xff, 0xff, 0xff,
  0x04, 0x00, 0x00, 0x00, 0x0c, 0x00, 0x00, 0x00, 0x26, 0xe2, 0x5a, 0xbd,
  0xee, 0xd2, 0xe9, 0xbf, 0x59, 0x9d, 0x58, 0x3f, 0x0a, 0xff, 0xff, 0xff,
  0x10, 0x00, 0x00, 0x00, 0x03, 0x00, 0x00, 0x00, 0x10, 0x00, 0x00, 0x00,
  0x3c, 0x00, 0x00, 0x00, 0x01, 0x00, 0x00, 0x00, 0x03, 0x00, 0x00, 0x00,
  0x29, 0x00, 0x00, 0x00, 0x73, 0x65, 0x71, 0x75, 0x65, 0x6e, 0x74, 0x69,
  0x61, 0x6c, 0x2f, 0x64, 0x65, 0x6e, 0x73, 0x65, 0x5f, 0x31, 0x2f, 0x42,
  0x69, 0x61, 0x73, 0x41, 0x64, 0x64, 0x2f, 0x52, 0x65, 0x61, 0x64, 0x56,
  0x61, 0x72, 0x69, 0x61, 0x62, 0x6c, 0x65, 0x4f, 0x70, 0x00, 0x00, 0x00,
  0x60, 0xff, 0xff, 0xff, 0x00, 0x00, 0x06, 0x00, 0x08, 0x00, 0x04, 0x00,
  0x06, 0x00, 0x00, 0x00, 0x04, 0x00, 0x00, 0x00, 0x40, 0x00, 0x00, 0x00,
  0xf0, 0xfb, 0x3e, 0x40, 0x07, 0x02, 0x39, 0x40, 0xe0, 0xd4, 0x0e, 0x40,
  0x34, 0xc1, 0xa1, 0xbf, 0x95, 0xfa, 0xb0, 0xbe, 0x6c, 0x3c, 0x24, 0xbf,
  0x74, 0xc0, 0x94, 0x3f, 0xe6, 0x18, 0xb1, 0xbc, 0x12, 0x2b, 0xaa, 0xbf,
  0x9e, 0xa1, 0x6a, 0xbe, 0xb9, 0x33, 0x4d, 0xbe, 0x0f, 0x63, 0x9a, 0xbe,
  0x71, 0x7a, 0x41, 0xbf, 0x13, 0xf5, 0x88, 0x3f, 0x51, 0x8b, 0x81, 0xbd,
  0x1a, 0x62, 0x87, 0x3f, 0xae, 0xff, 0xff, 0xff, 0x10, 0x00, 0x00, 0x00,
  0x02, 0x00, 0x00, 0x00, 0x10, 0x00, 0x00, 0x00, 0x3c, 0x00, 0x00, 0x00,
  0x01, 0x00, 0x00, 0x00, 0x10, 0x00, 0x00, 0x00, 0x27, 0x00, 0x00, 0x00,
  0x73, 0x65, 0x71, 0x75, 0x65, 0x6e, 0x74, 0x69, 0x61, 0x6c, 0x2f, 0x64,
  0x65, 0x6e, 0x73, 0x65, 0x2f, 0x42, 0x69, 0x61, 0x73, 0x41, 0x64, 0x64,
  0x2f, 0x52, 0x65, 0x61, 0x64, 0x56, 0x61, 0x72, 0x69, 0x61, 0x62, 0x6c,
  0x65, 0x4f, 0x70, 0x00, 0x04, 0x00, 0x06, 0x00, 0x04, 0x00, 0x00, 0x00,
  0x00, 0x00, 0x0e, 0x00, 0x14, 0x00, 0x04, 0x00, 0x00, 0x00, 0x08, 0x00,
  0x0c, 0x00, 0x10, 0x00, 0x0e, 0x00, 0x00, 0x00, 0x10, 0x00, 0x00, 0x00,
  0x01, 0x00, 0x00, 0x00, 0x1c, 0x00, 0x00, 0x00, 0x2c, 0x00, 0x00, 0x00,
  0x04, 0x00, 0x00, 0x00, 0x01, 0x00, 0x00, 0x00, 0x40, 0x00, 0x00, 0x00,
  0x03, 0x00, 0x00, 0x00, 0x01, 0x00, 0x00, 0x00, 0x0c, 0x00, 0x00, 0x00,
  0x63, 0x6f, 0x6e, 0x76, 0x32, 0x64, 0x5f, 0x69, 0x6e, 0x70, 0x75, 0x74,
  0x00, 0x00, 0x00, 0x00, 0xfc, 0xff, 0xff, 0xff, 0x04, 0x00, 0x04, 0x00,
  0x04, 0x00, 0x00, 0x00
};

unsigned int model_tflite_len = 12316;// Fill the int in `src/model.cc` here